{
  "version": "1.0",
  "truncation": null,
  "padding": null,
  "added_tokens": [
    {
      "id": 0,
      "content": "<unk>",
      "single_word": false,
      "lstrip": false,
      "rstrip": false,
      "normalized": false,
      "special": true
    },
    {
      "id": 1,
      "content": "<pad>",
      "single_word": false,
      "lstrip": false,
      "rstrip": false,
      "normalized": false,
      "special": true
    },
    {
      "id": 2,
      "content": "<bos>",
      "single_word": false,
      "lstrip": false,
      "rstrip": false,
      "normalized": false,
      "special": true
    },
    {
      "id": 3,
      "content": "<eos>",
      "single_word": false,
      "lstrip": false,
      "rstrip": false,
      "normalized": false,
      "special": true
    }
  ],
  "normalizer": null,
  "pre_tokenizer": {
    "type": "ByteLevel",
    "add_prefix_space": true,
    "trim_offsets": true,
    "use_regex": true
  },
  "post_processor": null,
  "decoder": null,
  "model": {
    "type": "BPE",
    "dropout": null,
    "unk_token": null,
    "continuing_subword_prefix": null,
    "end_of_word_suffix": null,
    "fuse_unk": false,
    "byte_fallback": false,
    "ignore_merges": false,
    "vocab": {
      "<unk>": 0,
      "<pad>": 1,
      "<bos>": 2,
      "<eos>": 3,
      "!": 4,
      "\"": 5,
      "#": 6,
      "$": 7,
      "%": 8,
      "&": 9,
      "'": 10,
      "(": 11,
      ")": 12,
      "*": 13,
      "+": 14,
      ",": 15,
      "-": 16,
      ".": 17,
      "/": 18,
      "0": 19,
      "1": 20,
      "2": 21,
      "3": 22,
      "4": 23,
      "5": 24,
      "6": 25,
      "7": 26,
      "8": 27,
      "9": 28,
      ":": 29,
      ";": 30,
      "<": 31,
      "=": 32,
      ">": 33,
      "?": 34,
      "@": 35,
      "A": 36,
      "C": 37,
      "D": 38,
      "E": 39,
      "K": 40,
      "L": 41,
      "M": 42,
      "N": 43,
      "P": 44,
      "S": 45,
      "U": 46,
      "[": 47,
      "\\": 48,
      "]": 49,
      "^": 50,
      "_": 51,
      "`": 52,
      "a": 53,
      "b": 54,
      "c": 55,
      "d": 56,
      "e": 57,
      "f": 58,
      "g": 59,
      "h": 60,
      "i": 61,
      "j": 62,
      "k": 63,
      "l": 64,
      "m": 65,
      "n": 66,
      "o": 67,
      "p": 68,
      "q": 69,
      "r": 70,
      "s": 71,
      "t": 72,
      "u": 73,
      "v": 74,
      "w": 75,
      "x": 76,
      "y": 77,
      "z": 78,
      "{": 79,
      "|": 80,
      "}": 81,
      "~": 82,
      "¡": 83,
      "¢": 84,
      "£": 85,
      "¤": 86,
      "¥": 87,
      "¦": 88,
      "§": 89,
      "¨": 90,
      "©": 91,
      "ª": 92,
      "«": 93,
      "¬": 94,
      "®": 95,
      "¯": 96,
      "°": 97,
      "±": 98,
      "²": 99,
      "³": 100,
      "´": 101,
      "µ": 102,
      "¶": 103,
      "·": 104,
      "¸": 105,
      "¹": 106,
      "º": 107,
      "»": 108,
      "¼": 109,
      "½": 110,
      "¾": 111,
      "¿": 112,
      "Â": 113,
      "Ã": 114,
      "Ä": 115,
      "Å": 116,
      "Æ": 117,
      "É": 118,
      "Ê": 119,
      "Ë": 120,
      "Î": 121,
      "Ï": 122,
      "Ð": 123,
      "Ñ": 124,
      "Ó": 125,
      "Õ": 126,
      "Ö": 127,
      "×": 128,
      "Ø": 129,
      "Ù": 130,
      "Ú": 131,
      "Û": 132,
      "à": 133,
      "á": 134,
      "â": 135,
      "ã": 136,
      "ä": 137,
      "å": 138,
      "æ": 139,
      "ç": 140,
      "è": 141,
      "é": 142,
      "ï": 143,
      "Ċ": 144,
      "Ġ": 145,
      "Ģ": 146,
      "ģ": 147,
      "Ĥ": 148,
      "ĥ": 149,
      "Ħ": 150,
      "ħ": 151,
      "Ĩ": 152,
      "ĩ": 153,
      "Ī": 154,
      "ī": 155,
      "Ĭ": 156,
      "ĭ": 157,
      "Į": 158,
      "į": 159,
      "İ": 160,
      "ı": 161,
      "Ĳ": 162,
      "ĳ": 163,
      "Ĵ": 164,
      "ĵ": 165,
      "Ķ": 166,
      "ķ": 167,
      "ĸ": 168,
      "Ĺ": 169,
      "ĺ": 170,
      "Ļ": 171,
      "ļ": 172,
      "Ľ": 173,
      "ľ": 174,
      "Ŀ": 175,
      "ŀ": 176,
      "Ł": 177,
      "ł": 178,
      "Ń": 179,
      "##": 180,
      "Ġ##": 181,
      "in": 182,
      "ed": 183,
      "er": 184,
      "on": 185,
      "Ġs": 186,
      "es": 187,
      "an": 188,
      "Ġc": 189,
      "en": 190,
      "at": 191,
      "ar": 192,
      "us": 193,
      "ing": 194,
      "un": 195,
      "al": 196,
      "Ġp": 197,
      "or": 198,
      "Ġr": 199,
      "Ġb": 200,
      "Ġm": 201,
      "Ġd": 202,
      "is": 203,
      "ic": 204,
      "Ġt": 205,
      "it": 206,
      "ion": 207,
      "used": 208,
      "Ġ[": 209,
      "el": 210,
      "unused": 211,
      "Ġf": 212,
      "Ġa": 213,
      "le": 214,
      "ur": 215,
      "Ġh": 216,
      "Ġg": 217,
      "as": 218,
      "ent": 219,
      "il": 220,
      "ro": 221,
      "Ġl": 222,
      "ol": 223,
      "ra": 224,
      "et": 225,
      "Ġw": 226,
      "om": 227,
      "ec": 228,
      "Ġ1": 229,
      "Ġn": 230,
      "ch": 231,
      "re": 232,
      "Ġin": 233,
      "Ġe": 234,
      "ers": 235,
      "ation": 236,
      "am": 237,
      "ri": 238,
      "ly": 239,
      "ul": 240,
      "ut": 241,
      "ac": 242,
      "id": 243,
      "Ġst": 244,
      "Ġre": 245,
      "ig": 246,
      "Ġv": 247,
      "ot": 248,
      "iv": 249,
      "os": 250,
      "ad": 251,
      "im": 252,
      "Ġcon": 253,
      "ist": 254,
      "ter": 255,
      "ir": 256,
      "em": 257,
      "um": 258,
      "and": 259,
      "Ġo": 260,
      "ess": 261,
      "ag": 262,
      "Ġj": 263,
      "est": 264,
      "ab": 265,
      "ce": 266,
      "Ġk": 267,
      "Ġch": 268,
      "ow": 269,
      "ant": 270,
      "st": 271,
      "qu": 272,
      "ay": 273,
      "pp": 274,
      "od": 275,
      "Ġsh": 276,
      "ct": 277,
      "ect": 278,
      "ia": 279,
      "ate": 280,
      "Ġpro": 281,
      "if": 282,
      "th": 283,
      "ian": 284,
      "Ġcom": 285,
      "Ġex": 286,
      "ard": 287,
      "og": 288,
      "ies": 289,
      "oc": 290,
      "pt": 291,
      "Ġsp": 292,
      "ie": 293,
      "ak": 294,
      "op": 295,
      "end": 296,
      "ated": 297,
      "ous": 298,
      "ill": 299,
      "ver": 300,
      "ell": 301,
      "Ġsu": 302,
      "Ġun": 303,
      "ip": 304,
      "ain": 305,
      "Ġar": 306,
      "Ġde": 307,
      "ort": 308,
      "Ġth": 309,
      "av": 310,
      "ud": 311,
      "ity": 312,
      "ht": 313,
      "Ġal": 314,
      "ive": 315,
      "Ġ2": 316,
      "ff": 317,
      "ug": 318,
      "ph": 319,
      "ical": 320,
      "ang": 321,
      "Ġcl": 322,
      "pl": 323,
      "iz": 324,
      "ib": 325,
      "ions": 326,
      "Ġco": 327,
      "art": 328,
      "ine": 329,
      "ment": 330,
      "ast": 331,
      "ap": 332,
      "ens": 333,
      "all": 334,
      "ors": 335,
      "Ġle": 336,
      "ish": 337,
      "Ġad": 338,
      "Ġà": 339,
      "ans": 340,
      "ks": 341,
      "Ġdis": 342,
      "Ġâ": 343,
      "und": 344,
      "Ġ19": 345,
      "Ġ18": 346,
      "ial": 347,
      "Ġsc": 348,
      "Ġpr": 349,
      "uc": 350,
      "ey": 351,
      "Ġ17": 352,
      "Ġfl": 353,
      "ass": 354,
      "our": 355,
      "ary": 356,
      "ted": 357,
      "ry": 358,
      "ath": 359,
      "ord": 360,
      "cc": 361,
      "ov": 362,
      "Ġã": 363,
      "ight": 364,
      "Ġse": 365,
      "ick": 366,
      "ok": 367,
      "led": 368,
      "per": 369,
      "Ġmar": 370,
      "ts": 371,
      "Ġen": 372,
      "ann": 373,
      "Ġbl": 374,
      "Ġas": 375,
      "ations": 376,
      "ub": 377,
      "ust": 378,
      "Ġtr": 379,
      "ely": 380,
      "ating": 381,
      "Ġne": 382,
      "ack": 383,
      "able": 384,
      "Ġy": 385,
      "Ġim": 386,
      "Ġpl": 387,
      "age": 388,
      "Ġres": 389,
      "ure": 390,
      "Ġcomp": 391,
      "ob": 392,
      "Ġ##â": 393,
      "ee": 394,
      "ton": 395,
      "les": 396,
      "Ġ3": 397,
      "orm": 398,
      "Ġå": 399,
      "att": 400,
      "aw": 401,
      "der": 402,
      "ge": 403,
      "Ġel": 404,
      "Ġcol": 405,
      "ence": 406,
      "Ġbe": 407,
      "Ġem": 408,
      "anc": 409,
      "Ġcont": 410,
      "ber": 411,
      "Ġrec": 412,
      "Ġam": 413,
      "ign": 414,
      "oy": 415,
      "ire": 416,
      "man": 417,
      "Ġá": 418,
      "ance": 419,
      "Ġ16": 420,
      "ock": 421,
      "ah": 422,
      "ru": 423,
      "Ġsl": 424,
      "iss": 425,
      "te": 426,
      "ach": 427,
      "ting": 428,
      "Ġqu": 429,
      "ons": 430,
      "Ġtra": 431,
      "olog": 432,
      "ide": 433,
      "ik": 434,
      "ling": 435,
      "ear": 436,
      "ood": 437,
      "ins": 438,
      "her": 439,
      "Ġor": 440,
      "pr": 441,
      "Ġcar": 442,
      "ail": 443,
      "out": 444,
      "Ġsw": 445,
      "ings": 446,
      "row": 447,
      "Ġinter": 448,
      "ron": 449,
      "ric": 450,
      "sh": 451,
      "ally": 452,
      "ents": 453,
      "bs": 454,
      "up": 455,
      "ley": 456,
      "00": 457,
      "ind": 458,
      "ates": 459,
      "als": 460,
      "Ġbar": 461,
      "Ġhe": 462,
      "ash": 463,
      "enc": 464,
      "Ġph": 465,
      "ore": 466,
      "Ġbo": 467,
      "Ġcons": 468,
      "Ġcomm": 469,
      "ue": 470,
      "land": 471,
      "Ġbr": 472,
      "ne": 473,
      "Ġapp": 474,
      "Ġacc": 475,
      "ition": 476,
      "ult": 477,
      "ve": 478,
      "Ġpar": 479,
      "Ġgu": 480,
      "Ġwh": 481,
      "io": 482,
      "ied": 483,
      "Ġan": 484,
      "one": 485,
      "ier": 486,
      "ps": 487,
      "Ġmon": 488,
      "air": 489,
      "ious": 490,
      "Ġcr": 491,
      "Ġper": 492,
      "Ġind": 493,
      "Ġass": 494,
      "ory": 495,
      "Ġab": 496,
      "Ġint": 497,
      "cl": 498,
      "Ġ4": 499,
      "act": 500,
      "iel": 501,
      "Ġcor": 502,
      "Ġpre": 503,
      "Ġfr": 504,
      "Ġgl": 505,
      "Ġgra": 506,
      "own": 507,
      "Ġtrans": 508,
      "ev": 509,
      "ound": 510,
      "Ġæ": 511,
      "ong": 512,
      "ich": 513,
      "Ġgr": 514,
      "old": 515,
      "Ġreg": 516,
      "ile": 517,
      "ert": 518,
      "Ġsy": 519,
      "ics": 520,
      "ai": 521,
      "oun": 522,
      "Ġz": 523,
      "ered": 524,
      "ane": 525,
      "ank": 526,
      "Ġrel": 527,
      "ise": 528,
      "ace": 529,
      "ost": 530,
      "ful": 531,
      "Ġdec": 532,
      "ism": 533,
      "ict": 534,
      "Ġinv": 535,
      "ax": 536,
      "az": 537,
      "ex": 538,
      "ged": 539,
      "its": 540,
      "ets": 541,
      "ite": 542,
      "Ġins": 543,
      "ugh": 544,
      "ress": 545,
      "ern": 546,
      "ond": 547,
      "Ġsur": 548,
      "Ġwe": 549,
      "igh": 550,
      "over": 551,
      "ene": 552,
      "ice": 553,
      "ith": 554,
      "raph": 555,
      "rib": 556,
      "Ġsub": 557,
      "fer": 558,
      "way": 559,
      "ys": 560,
      "erv": 561,
      "are": 562,
      "Ġdes": 563,
      "ities": 564,
      "Ġout": 565,
      "ized": 566,
      "app": 567,
      "min": 568,
      "Ġatt": 569,
      "arm": 570,
      "ract": 571,
      "ched": 572,
      "amp": 573,
      "rig": 574,
      "port": 575,
      "Ġsk": 576,
      "Ġpe": 577,
      "Ġro": 578,
      "Ġman": 579,
      "Ġfor": 580,
      "ram": 581,
      "50": 582,
      "af": 583,
      "ck": 584,
      "ness": 585,
      "ty": 586,
      "ina": 587,
      "Ġsm": 588,
      "ative": 589,
      "Ġste": 590,
      "Ġrem": 591,
      "ement": 592,
      "he": 593,
      "ix": 594,
      "son": 595,
      "Ġed": 596,
      "urg": 597,
      "Ġlo": 598,
      "Ġinf": 599,
      "uck": 600,
      "du": 601,
      "ll": 602,
      "Ġant": 603,
      "ana": 604,
      "enn": 605,
      "ator": 606,
      "ale": 607,
      "Ġconf": 608,
      "Ġdef": 609,
      "80": 610,
      "bo": 611,
      "ham": 612,
      "lin": 613,
      "se": 614,
      "ering": 615,
      "ark": 616,
      "ush": 617,
      "Ġpol": 618,
      "Ġbre": 619,
      "Ġdist": 620,
      "ase": 621,
      "ett": 622,
      "ular": 623,
      "ield": 624,
      "60": 625,
      "70": 626,
      "red": 627,
      "ĠÂ": 628,
      "int": 629,
      "Ġdo": 630,
      "Ġgre": 631,
      "ade": 632,
      "10": 633,
      "20": 634,
      "ae": 635,
      "ipp": 636,
      "ward": 637,
      "Ġag": 638,
      "urn": 639,
      "ants": 640,
      "40": 641,
      "ual": 642,
      "vers": 643,
      "Ġcur": 644,
      "ung": 645,
      "orn": 646,
      "Ġmin": 647,
      "Ġter": 648,
      "ures": 649,
      "ild": 650,
      "ility": 651,
      "Ġev": 652,
      "rid": 653,
      "ose": 654,
      "Ġdisc": 655,
      "Ġimp": 656,
      "30": 657,
      "gan": 658,
      "ium": 659,
      "pect": 660,
      "à¦": 661,
      "inc": 662,
      "ened": 663,
      "ater": 664,
      "Ġpo": 665,
      "Ġpat": 666,
      "Ġme": 667,
      "Ġgen": 668,
      "eth": 669,
      "eter": 670,
      "ches": 671,
      "Ġinst": 672,
      "Ġref": 673,
      "oth": 674,
      "ists": 675,
      "ific": 676,
      "ograph": 677,
      "Ġà¦": 678,
      "90": 679,
      "au": 680,
      "ãģ": 681,
      "Ġso": 682,
      "eng": 683,
      "ara": 684,
      "Ġbro": 685,
      "els": 686,
      "Ġac": 687,
      "ech": 688,
      "Ġinc": 689,
      "Ġstr": 690,
      "oss": 691,
      "Ġjo": 692,
      "que": 693,
      "ction": 694,
      "Ġdep": 695,
      "Ġãģ": 696,
      "ft": 697,
      "ient": 698,
      "ject": 699,
      "ner": 700,
      "vis": 701,
      "Ġ5": 702,
      "Ġç": 703,
      "Ġent": 704,
      "Ġpri": 705,
      "Ġbel": 706,
      "ited": 707,
      "Ġfe": 708,
      "ically": 709,
      "ology": 710,
      "à¤": 711,
      "ãĤ": 712,
      "Ġcal": 713,
      "ats": 714,
      "Ġmo": 715,
      "Ġdel": 716,
      "Ġdem": 717,
      "rad": 718,
      "ott": 719,
      "umb": 720,
      "Ġob": 721,
      "iff": 722,
      "ption": 723,
      "ake": 724,
      "ments": 725,
      "Ġà¤": 726,
      "ĠãĤ": 727,
      "11": 728,
      "25": 729,
      "75": 730,
      "ma": 731,
      "rit": 732,
      "ym": 733,
      "ãĥ": 734,
      "Ġis": 735,
      "atic": 736,
      "Ġpart": 737,
      "let": 738,
      "Ġher": 739,
      "Ġhar": 740,
      "ome": 741,
      "Ġrep": 742,
      "ives": 743,
      "ible": 744,
      "ĠâĤ": 745,
      "Ġpres": 746,
      "Ġãĥ": 747,
      "21": 748,
      "lo": 749,
      "Ġer": 750,
      "Ġsn": 751,
      "Ġca": 752,
      "uss": 753,
      "Ġfin": 754,
      "Ġfre": 755,
      "Ġaut": 756,
      "Ġover": 757,
      "Ġkn": 758,
      "Ġchar": 759,
      "35": 760,
      "by": 761,
      "ger": 762,
      "king": 763,
      "ler": 764,
      "ou": 765,
      "res": 766,
      "ss": 767,
      "vent": 768,
      "Ġä": 769,
      "ont": 770,
      "Ġser": 771,
      "Ġsal": 772,
      "Ġsim": 773,
      "Ġcre": 774,
      "Ġret": 775,
      "Ġmer": 776,
      "Ġte": 777,
      "ured": 778,
      "rop": 779,
      "Ġla": 780,
      "Ġarch": 781,
      "Ġdev": 782,
      "ished": 783,
      "24": 784,
      "26": 785,
      "28": 786,
      "29": 787,
      "34": 788,
      "38": 789,
      "ford": 790,
      "hip": 791,
      "la": 792,
      "ves": 793,
      "yn": 794,
      "Ġ×": 795,
      "Ġé": 796,
      "Ġbu": 797,
      "Ġmod": 798,
      "Ġdra": 799,
      "Ġtre": 800,
      "aster": 801,
      "ille": 802,
      "Ġnot": 803,
      "Ġconst": 804,
      "ump": 805,
      "Ġexpl": 806,
      "15": 807,
      "16": 808,
      "18": 809,
      "36": 810,
      "37": 811,
      "39": 812,
      "br": 813,
      "ke": 814,
      "med": 815,
      "âĤ": 816,
      "ines": 817,
      "ery": 818,
      "Ġrest": 819,
      "Ġmal": 820,
      "Ġgro": 821,
      "ute": 822,
      "ution": 823,
      "ians": 824,
      "Ġspec": 825,
      "Ġnew": 826,
      "14": 827,
      "17": 828,
      "19": 829,
      "27": 830,
      "co": 831,
      "eg": 832,
      "ked": 833,
      "na": 834,
      "ning": 835,
      "Ġir": 836,
      "Ġann": 837,
      "Ġmed": 838,
      "ised": 839,
      "ison": 840,
      "urs": 841,
      "Ġge": 842,
      "ily": 843,
      "oll": 844,
      "Ġwar": 845,
      "Ġwor": 846,
      "Ġrev": 847,
      "Ġoff": 848,
      "ages": 849,
      "ified": 850,
      "Ġexp": 851,
      "Ġsupp": 852,
      "ude": 853,
      "Ġ20": 854,
      "Ġcoun": 855,
      "44": 856,
      "55": 857,
      "less": 858,
      "ues": 859,
      "Ġu": 860,
      "ined": 861,
      "ony": 862,
      "Ġsch": 863,
      "ari": 864,
      "use": 865,
      "ald": 866,
      "Ġport": 867,
      "Ġrob": 868,
      "Ġbra": 869,
      "Ġma": 870,
      "Ġtw": 871,
      "itch": 872,
      "Ġfo": 873,
      "Ġav": 874,
      "ently": 875,
      "omin": 876,
      "ational": 877,
      "ots": 878,
      "Ġconc": 879,
      "ays": 880,
      "Ġprot": 881,
      "65": 882,
      "85": 883,
      "ew": 884,
      "lic": 885,
      "mit": 886,
      "ns": 887,
      "ned": 888,
      "rist": 889,
      "sc": 890,
      "ved": 891,
      "ving": 892,
      "ying": 893,
      "ĠÑ": 894,
      "Ġang": 895,
      "Ġcro": 896,
      "Ġcra": 897,
      "Ġred": 898,
      "Ġmag": 899,
      "Ġdr": 900,
      "Ġtri": 901,
      "ame": 902,
      "tered": 903,
      "ection": 904,
      "Ġext": 905,
      "Ġthe": 906,
      "outh": 907,
      "45": 908,
      "49": 909,
      "66": 910,
      "79": 911,
      "89": 912,
      "be": 913,
      "bor": 914,
      "burg": 915,
      "com": 916,
      "de": 917,
      "field": 918,
      "ky": 919,
      "me": 920,
      "ney": 921,
      "yl": 922,
      "ĠÊ": 923,
      "ĠØ": 924,
      "Ġat": 925,
      "Ġec": 926,
      "Ġest": 927,
      "Ġup": 928,
      "Ġsec": 929,
      "ars": 930,
      "Ġpers": 931,
      "Ġmor": 932,
      "Ġmet": 933,
      "Ġmot": 934,
      "Ġdi": 935,
      "Ġdet": 936,
      "Ġaf": 937,
      "Ġap": 938,
      "Ġair": 939,
      "Ġact": 940,
      "Ġhand": 941,
      "ident": 942,
      "Ġvi": 943,
      "Ġval": 944,
      "ime": 945,
      "ards": 946,
      "iew": 947,
      "ope": 948,
      "ouse": 949,
      "Ġsuper": 950,
      "Ġunder": 951,
      "ave": 952,
      "Ġall": 953,
      "ĠâĢ": 954,
      "Ġeng": 955,
      "Ġ##âĢ": 956,
      "Ġelect": 957,
      "ruct": 958,
      "press": 959,
      "12": 960,
      "86": 961,
      "gg": 962,
      "ira": 963,
      "ms": 964,
      "ole": 965,
      "Ġ6": 966,
      "Ġsol": 967,
      "Ġcle": 968,
      "Ġra": 969,
      "Ġbur": 970,
      "Ġbas": 971,
      "Ġmc": 972,
      "Ġdiv": 973,
      "Ġto": 974,
      "Ġtem": 975,
      "lect": 976,
      "Ġhum": 977,
      "Ġnor": 978,
      "ull": 979,
      "Ġver": 980,
      "ows": 981,
      "ught": 982,
      "Ġcoll": 983,
      "right": 984,
      "22": 985,
      "33": 986,
      "46": 987,
      "47": 988,
      "ced": 989,
      "ep": 990,
      "form": 991,
      "gr": 992,
      "ius": 993,
      "ka": 994,
      "mer": 995,
      "nd": 996,
      "ring": 997,
      "we": 998,
      "Ġ7": 999,
      "Ġ9": 1000,
      "Ġè": 1001,
      "Ġend": 1002,
      "Ġ##Â": 1003,
      "ino": 1004,
      "esc": 1005,
      "ening": 1006,
      "ators": 1007,
      "ored": 1008,
      "Ġtur": 1009,
      "Ġtro": 1010,
      "ital": 1011,
      "ural": 1012,
      "Ġhel": 1013,
      "Ġvis": 1014,
      "Ġvol": 1015,
      "ively": 1016,
      "ower": 1017,
      "pped": 1018,
      "Ġprom": 1019,
      "ained": 1020,
      "Ġleg": 1021,
      "ological": 1022,
      "ency": 1023,
      "48": 1024,
      "bed": 1025,
      "ble": 1026,
      "ef": 1027,
      "ker": 1028,
      "ta": 1029,
      "uff": 1030,
      "ese": 1031,
      "Ġcan": 1032,
      "ena": 1033,
      "atch": 1034,
      "ately": 1035,
      "Ġpal": 1036,
      "Ġmus": 1037,
      "Ġmid": 1038,
      "ising": 1039,
      "ica": 1040,
      "Ġfil": 1041,
      "Ġaff": 1042,
      "Ġho": 1043,
      "Ġgo": 1044,
      "Ġlib": 1045,
      "ray": 1046,
      "ream": 1047,
      "uted": 1048,
      "osed": 1049,
      "Ġocc": 1050,
      "cept": 1051,
      "Ġexc": 1052,
      "Ġarm": 1053,
      "Ġorgan": 1054,
      "13": 1055,
      "23": 1056,
      "59": 1057,
      "87": 1058,
      "aul": 1059,
      "cy": 1060,
      "ges": 1061,
      "iation": 1062,
      "ki": 1063,
      "oon": 1064,
      "wor": 1065,
      "wood": 1066,
      "yp": 1067,
      "zz": 1068,
      "ï¼": 1069,
      "Ġx": 1070,
      "ĠÉ": 1071,
      "ĠÕ": 1072,
      "Ġus": 1073,
      "Ġut": 1074,
      "Ġand": 1075,
      "Ġill": 1076,
      "Ġsqu": 1077,
      "ata": 1078,
      "ared": 1079,
      "aries": 1080,
      "aly": 1081,
      "Ġbi": 1082,
      "Ġmil": 1083,
      "Ġmad": 1084,
      "Ġdon": 1085,
      "Ġdir": 1086,
      "ices": 1087,
      "Ġhon": 1088,
      "ased": 1089,
      "Ġland": 1090,
      "Ġwal": 1091,
      "che": 1092,
      "ries": 1093,
      "acy": 1094,
      "ads": 1095,
      "Ġprof": 1096,
      "Ġprop": 1097,
      "aking": 1098,
      "ains": 1099,
      "ization": 1100,
      "ances": 1101,
      "ship": 1102,
      "ount": 1103,
      "56": 1104,
      "88": 1105,
      "cul": 1106,
      "den": 1107,
      "ging": 1108,
      "ha": 1109,
      "ior": 1110,
      "mm": 1111,
      "por": 1112,
      "ral": 1113,
      "sy": 1114,
      "áĥ": 1115,
      "Ġol": 1116,
      "ink": 1117,
      "ones": 1118,
      "Ġsat": 1119,
      "Ġsus": 1120,
      "Ġsil": 1121,
      "Ġsoc": 1122,
      "ano": 1123,
      "Ġcent": 1124,
      "arr": 1125,
      "ala": 1126,
      "Ġpos": 1127,
      "Ġden": 1128,
      "ises": 1129,
      "iting": 1130,
      "ional": 1131,
      "Ġform": 1132,
      "Ġast": 1133,
      "Ġham": 1134,
      "etic": 1135,
      "Ġwr": 1136,
      "omb": 1137,
      "oms": 1138,
      "acks": 1139,
      "ids": 1140,
      "ided": 1141,
      "Ġstra": 1142,
      "Ġconv": 1143,
      "owed": 1144,
      "ended": 1145,
      "ending": 1146,
      "Ġadd": 1147,
      "Ġáĥ": 1148,
      "Ġphil": 1149,
      "duct": 1150,
      "43": 1151,
      "57": 1152,
      "69": 1153,
      "apt": 1154,
      "dy": 1155,
      "go": 1156,
      "gu": 1157,
      "ough": 1158,
      "par": 1159,
      "áµ": 1160,
      "ining": 1161,
      "ere": 1162,
      "Ġsign": 1163,
      "esh": 1164,
      "Ġcy": 1165,
      "Ġcas": 1166,
      "Ġcam": 1167,
      "Ġcap": 1168,
      "Ġpur": 1169,
      "Ġpet": 1170,
      "Ġpass": 1171,
      "Ġmem": 1172,
      "itions": 1173,
      "ury": 1174,
      "uring": 1175,
      "Ġhur": 1176,
      "ason": 1177,
      "Ġloc": 1178,
      "Ġluc": 1179,
      "Ġear": 1180,
      "ides": 1181,
      "Ġreal": 1182,
      "tern": 1183,
      "Ġobs": 1184,
      "Ġjud": 1185,
      "ody": 1186,
      "Ġsho": 1187,
      "Ġprov": 1188,
      "aint": 1189,
      "Ġart": 1190,
      "Ġplay": 1191,
      "berg": 1192,
      "Ġáµ": 1193,
      "ission": 1194,
      "ences": 1195,
      "Ġinvest": 1196,
      "Ġgener": 1197,
      "ification": 1198,
      "41": 1199,
      "67": 1200,
      "ez": 1201,
      "for": 1202,
      "gen": 1203,
      "hib": 1204,
      "ls": 1205,
      "ming": 1206,
      "ped": 1207,
      "pers": 1208,
      "ret": 1209,
      "ration": 1210,
      "ux": 1211,
      "vel": 1212,
      "à®": 1213,
      "áĦ": 1214,
      "ĠÎ": 1215,
      "ĠÐ": 1216,
      "inn": 1217,
      "Ġcel": 1218,
      "arian": 1219,
      "Ġpen": 1220,
      "Ġpun": 1221,
      "Ġrh": 1222,
      "Ġrad": 1223,
      "Ġber": 1224,
      "Ġback": 1225,
      "Ġmat": 1226,
      "Ġmel": 1227,
      "Ġmur": 1228,
      "Ġmac": 1229,
      "Ġdown": 1230,
      "Ġtal": 1231,
      "Ġtor": 1232,
      "Ġtel": 1233,
      "itz": 1234,
      "Ġfle": 1235,
      "Ġfac": 1236,
      "Ġaw": 1237,
      "Ġhol": 1238,
      "Ġhom": 1239,
      "Ġhard": 1240,
      "Ġgri": 1241,
      "ental": 1242,
      "Ġlit": 1243,
      "Ġlim": 1244,
      "Ġlab": 1245,
      "Ġwil": 1246,
      "Ġwill": 1247,
      "omm": 1248,
      "eck": 1249,
      "Ġequ": 1250,
      "ried": 1251,
      "ider": 1252,
      "Ġstri": 1253,
      "ivers": 1254,
      "ired": 1255,
      "Ġow": 1256,
      "Ġche": 1257,
      "Ġchrist": 1258,
      "ste": 1259,
      "ected": 1260,
      "Ġprog": 1261,
      "ends": 1262,
      "ender": 1263,
      "aining": 1264,
      "Ġà®": 1265,
      "ather": 1266,
      "Ġimm": 1267,
      "Ġ##âĪ": 1268,
      "ĠáĦ": 1269,
      "32": 1270,
      "77": 1271,
      "bb": 1272,
      "ca": 1273,
      "ding": 1274,
      "gy": 1275,
      "gre": 1276,
      "hor": 1277,
      "iers": 1278,
      "light": 1279,
      "mb": 1280,
      "oo": 1281,
      "off": 1282,
      "rd": 1283,
      "ually": 1284,
      "yth": 1285,
      "à¸": 1286,
      "áħ": 1287,
      "ination": 1288,
      "eds": 1289,
      "Ġsel": 1290,
      "Ġsam": 1291,
      "ani": 1292,
      "Ġcir": 1293,
      "Ġcamp": 1294,
      "Ġpub": 1295,
      "Ġrom": 1296,
      "Ġdu": 1297,
      "ication": 1298,
      "Ġtim": 1299,
      "ites": 1300,
      "itor": 1301,
      "itation": 1302,
      "Ġhor": 1303,
      "Ġhigh": 1304,
      "Ġgar": 1305,
      "Ġgun": 1306,
      "ented": 1307,
      "ette": 1308,
      "uls": 1309,
      "uts": 1310,
      "iding": 1311,
      "ote": 1312,
      "aded": 1313,
      "Ġcond": 1314,
      "Ġconn": 1315,
      "ements": 1316,
      "Ġop": 1317,
      "Ġoper": 1318,
      "ested": 1319,
      "ably": 1320,
      "ability": 1321,
      "pping": 1322,
      "akes": 1323,
      "ops": 1324,
      "elled": 1325,
      "elling": 1326,
      "Ġclass": 1327,
      "ploy": 1328,
      "ize": 1329,
      "Ġadv": 1330,
      "Ġà¸": 1331,
      "ĠâĪ": 1332,
      "oked": 1333,
      "Ġemb": 1334,
      "Ġcontin": 1335,
      "Ġáħ": 1336,
      "ike": 1337,
      "here": 1338,
      "Ġcommun": 1339,
      "Ġsyn": 1340,
      "Ġdesc": 1341,
      "31": 1342,
      "42": 1343,
      "58": 1344,
      "ders": 1345,
      "gro": 1346,
      "ii": 1347,
      "ique": 1348,
      "kins": 1349,
      "line": 1350,
      "lish": 1351,
      "po": 1352,
      "to": 1353,
      "ville": 1354,
      "ya": 1355,
      "za": 1356,
      "Ġ8": 1357,
      "ĠÙ": 1358,
      "Ġet": 1359,
      "Ġ##à": 1360,
      "inal": 1361,
      "onom": 1362,
      "onst": 1363,
      "Ġsem": 1364,
      "Ġsum": 1365,
      "Ġsens": 1366,
      "Ġcat": 1367,
      "ature": 1368,
      "atory": 1369,
      "aring": 1370,
      "ality": 1371,
      "Ġple": 1372,
      "Ġbal": 1373,
      "Ġbul": 1374,
      "Ġmart": 1375,
      "Ġdam": 1376,
      "Ġdri": 1377,
      "icip": 1378,
      "Ġtex": 1379,
      "Ġaud": 1380,
      "lement": 1381,
      "Ġhy": 1382,
      "Ġgal": 1383,
      "asc": 1384,
      "Ġ10": 1385,
      "Ġnov": 1386,
      "ama": 1387,
      "ript": 1388,
      "Ġreb": 1389,
      "ession": 1390,
      "ests": 1391,
      "owing": 1392,
      "Ġexper": 1393,
      "Ġspe": 1394,
      "aker": 1395,
      "ously": 1396,
      "ills": 1397,
      "Ġsubs": 1398,
      "ially": 1399,
      "Ġpred": 1400,
      "oke": 1401,
      "Ġenc": 1402,
      "eek": 1403,
      "Ġrece": 1404,
      "Ġswe": 1405,
      "Ġhead": 1406,
      "fully": 1407,
      "Ġjoh": 1408,
      "Ġnorth": 1409,
      "95": 1410,
      "97": 1411,
      "ball": 1412,
      "bour": 1413,
      "day": 1414,
      "ga": 1415,
      "iet": 1416,
      "iate": 1417,
      "mon": 1418,
      "nes": 1419,
      "nam": 1420,
      "rated": 1421,
      "tt": 1422,
      "uel": 1423,
      "ven": 1424,
      "val": 1425,
      "well": 1426,
      "ye": 1427,
      "eder": 1428,
      "uses": 1429,
      "unt": 1430,
      "aled": 1431,
      "aling": 1432,
      "Ġpsy": 1433,
      "ores": 1434,
      "Ġros": 1435,
      "Ġben": 1436,
      "Ġball": 1437,
      "Ġmay": 1438,
      "Ġder": 1439,
      "Ġdun": 1440,
      "Ġdest": 1441,
      "Ġdomin": 1442,
      "isc": 1443,
      "Ġtun": 1444,
      "ita": 1445,
      "Ġfer": 1446,
      "Ġfun": 1447,
      "Ġfort": 1448,
      "Ġfav": 1449,
      "ases": 1450,
      "enth": 1451,
      "iled": 1452,
      "rom": 1453,
      "Ġ15": 1454,
      "ching": 1455,
      "rew": 1456,
      "Ġeff": 1457,
      "Ġstat": 1458,
      "Ġrepl": 1459,
      "Ġrepr": 1460,
      "oted": 1461,
      "isted": 1462,
      "istic": 1463,
      "ands": 1464,
      "Ġopp": 1465,
      "essed": 1466,
      "aged": 1467,
      "aging": 1468,
      "Ġshe": 1469,
      "ector": 1470,
      "ify": 1471,
      "iffer": 1472,
      "Ġcompl": 1473,
      "oph": 1474,
      "ella": 1475,
      "Ġunc": 1476,
      "Ġ200": 1477,
      "Ġcla": 1478,
      "Ġcour": 1479,
      "aps": 1480,
      "ense": 1481,
      "Ġâģ": 1482,
      "Ġprec": 1483,
      "Ġresp": 1484,
      "Ġamb": 1485,
      "ears": 1486,
      "iously": 1487,
      "Ġcrit": 1488,
      "Ġsurv": 1489,
      "ribut": 1490,
      "ipped": 1491,
      "echn": 1492,
      "Ġviol": 1493,
      "68": 1494,
      "aut": 1495,
      "ba": 1496,
      "ban": 1497,
      "back": 1498,
      "cast": 1499,
      "ds": 1500,
      "dle": 1501,
      "duc": 1502,
      "fl": 1503,
      "fort": 1504,
      "fact": 1505,
      "gar": 1506,
      "hi": 1507,
      "han": 1508,
      "hol": 1509,
      "hire": 1510,
      "hood": 1511,
      "iqu": 1512,
      "iated": 1513,
      "log": 1514,
      "men": 1515,
      "mar": 1516,
      "nt": 1517,
      "ners": 1518,
      "pe": 1519,
      "ple": 1520,
      "ua": 1521,
      "ued": 1522,
      "uct": 1523,
      "yr": 1524,
      "ze": 1525,
      "à½": 1526,
      "ãĢ": 1527,
      "Ġ0": 1528,
      "Ġord": 1529,
      "Ġign": 1530,
      "Ġ##ãĢ": 1531,
      "iness": 1532,
      "onn": 1533,
      "onic": 1534,
      "Ġsing": 1535,
      "Ġsom": 1536,
      "Ġserv": 1537,
      "ato": 1538,
      "usion": 1539,
      "Ġpot": 1540,
      "Ġpop": 1541,
      "Ġpack": 1542,
      "Ġposs": 1543,
      "Ġren": 1544,
      "Ġrun": 1545,
      "Ġrot": 1546,
      "Ġbut": 1547,
      "Ġbud": 1548,
      "Ġbatt": 1549,
      "icks": 1550,
      "Ġtax": 1551,
      "itt": 1552,
      "elle": 1553,
      "elop": 1554,
      "Ġfra": 1555,
      "Ġabs": 1556,
      "Ġhal": 1557,
      "Ġger": 1558,
      "asing": 1559,
      "ils": 1560,
      "iles": 1561,
      "rol": 1562,
      "roll": 1563,
      "Ġlu": 1564,
      "Ġlif": 1565,
      "Ġlog": 1566,
      "ols": 1567,
      "Ġwa": 1568,
      "Ġwin": 1569,
      "Ġwat": 1570,
      "rey": 1571,
      "Ġep": 1572,
      "Ġever": 1573,
      "amm": 1574,
      "ams": 1575,
      "rie": 1576,
      "rif": 1577,
      "ulation": 1578,
      "ulated": 1579,
      "Ġrequ": 1580,
      "Ġvir": 1581,
      "iver": 1582,
      "ades": 1583,
      "ading": 1584,
      "emb": 1585,
      "Ġjul": 1586,
      "Ġcho": 1587,
      "ode": 1588,
      "ects": 1589,
      "ief": 1590,
      "illa": 1591,
      "ips": 1592,
      "Ġdeb": 1593,
      "ibility": 1594,
      "ape": 1595,
      "Ġà½": 1596,
      "ials": 1597,
      "ove": 1598,
      "ĠãĢ": 1599,
      "Ġmark": 1600,
      "Ġcompet": 1601,
      "eep": 1602,
      "Ġ30": 1603,
      "rupt": 1604,
      "Ġintern": 1605,
      "shire": 1606,
      "ashed": 1607,
      "Ġappro": 1608,
      "Ġprem": 1609,
      "Ġgrand": 1610,
      "Ġsubst": 1611,
      "Ġinfl": 1612,
      "board": 1613,
      "ography": 1614,
      "Ġcapt": 1615,
      "78": 1616,
      "99": 1617,
      "bre": 1618,
      "ces": 1619,
      "do": 1620,
      "ded": 1621,
      "ees": 1622,
      "een": 1623,
      "get": 1624,
      "hold": 1625,
      "ias": 1626,
      "ience": 1627,
      "rel": 1628,
      "rate": 1629,
      "rang": 1630,
      "su": 1631,
      "âģ": 1632,
      "Ġi": 1633,
      "Ġq": 1634,
      "ĠÏ": 1635,
      "Ġon": 1636,
      "Ġur": 1637,
      "Ġens": 1638,
      "inted": 1639,
      "eded": 1640,
      "eding": 1641,
      "Ġsan": 1642,
      "Ġsun": 1643,
      "Ġsent": 1644,
      "Ġsav": 1645,
      "Ġcop": 1646,
      "Ġcast": 1647,
      "Ġcrow": 1648,
      "Ġpa": 1649,
      "Ġpost": 1650,
      "oring": 1651,
      "ories": 1652,
      "Ġrac": 1653,
      "Ġrub": 1654,
      "Ġrock": 1655,
      "Ġrich": 1656,
      "Ġbus": 1657,
      "Ġbol": 1658,
      "Ġmut": 1659,
      "Ġmand": 1660,
      "Ġmess": 1661,
      "Ġmill": 1662,
      "Ġmiss": 1663,
      "Ġdom": 1664,
      "Ġdiffer": 1665,
      "ision": 1666,
      "ico": 1667,
      "Ġtit": 1668,
      "Ġtechn": 1669,
      "itu": 1670,
      "itive": 1671,
      "itude": 1672,
      "ura": 1673,
      "Ġha": 1674,
      "Ġgall": 1675,
      "Ġgover": 1676,
      "ention": 1677,
      "ila": 1678,
      "Ġlow": 1679,
      "Ġlaw": 1680,
      "ola": 1681,
      "olf": 1682,
      "Ġwood": 1683,
      "Ġno": 1684,
      "Ġnat": 1685,
      "Ġnight": 1686,
      "aming": 1687,
      "idae": 1688,
      "Ġstar": 1689,
      "Ġrefer": 1690,
      "otic": 1691,
      "ival": 1692,
      "oses": 1693,
      "iment": 1694,
      "ister": 1695,
      "tering": 1696,
      "iring": 1697,
      "ems": 1698,
      "ume": 1699,
      "anding": 1700,
      "Ġopt": 1701,
      "Ġovers": 1702,
      "Ġje": 1703,
      "Ġjun": 1704,
      "abor": 1705,
      "Ġshr": 1706,
      "Ġshel": 1707,
      "ift": 1708,
      "Ġcomb": 1709,
      "ogn": 1710,
      "illed": 1711,
      "vert": 1712,
      "ells": 1713,
      "eller": 1714,
      "Ġsucc": 1715,
      "Ġthre": 1716,
      "izing": 1717,
      "Ġadj": 1718,
      "Ġ190": 1719,
      "Ġ180": 1720,
      "Ġprinc": 1721,
      "ours": 1722,
      "anna": 1723,
      "Ġblack": 1724,
      "Ġneg": 1725,
      "Ġneigh": 1726,
      "bert": 1727,
      "ails": 1728,
      "ront": 1729,
      "inds": 1730,
      "Ġheav": 1731,
      "Ġphot": 1732,
      "lands": 1733,
      "Ġmont": 1734,
      "Ġfranc": 1735,
      "Ġtransl": 1736,
      "iction": 1737,
      "ways": 1738,
      "Ġdesign": 1739,
      "wards": 1740,
      "ength": 1741,
      "Ġbroad": 1742,
      "Ġspecial": 1743,
      "stein": 1744,
      "Ġcirc": 1745,
      "Ġpsych": 1746,
      "51": 1747,
      "64": 1748,
      "98": 1749,
      "ao": 1750,
      "cing": 1751,
      "don": 1752,
      "fall": 1753,
      "gn": 1754,
      "gers": 1755,
      "grad": 1756,
      "ien": 1757,
      "ja": 1758,
      "ko": 1759,
      "miss": 1760,
      "mark": 1761,
      "of": 1762,
      "ox": 1763,
      "pic": 1764,
      "rum": 1765,
      "rick": 1766,
      "ule": 1767,
      "win": 1768,
      "å®": 1769,
      "Ġic": 1770,
      "Ġid": 1771,
      "Ġos": 1772,
      "Ġeth": 1773,
      "Ġident": 1774,
      "Ġesc": 1775,
      "Ġï¼": 1776,
      "Ġ##ï¼": 1777,
      "ini": 1778,
      "inct": 1779,
      "ints": 1780,
      "eric": 1781,
      "Ġsle": 1782,
      "Ġsab": 1783,
      "esis": 1784,
      "any": 1785,
      "anes": 1786,
      "ania": 1787,
      "Ġcart": 1788,
      "arch": 1789,
      "Ġpan": 1790,
      "Ġpad": 1791,
      "Ġpap": 1792,
      "Ġpract": 1793,
      "ora": 1794,
      "Ġbat": 1795,
      "Ġbor": 1796,
      "Ġbet": 1797,
      "Ġbri": 1798,
      "Ġbow": 1799,
      "Ġbang": 1800,
      "Ġmun": 1801,
      "Ġmic": 1802,
      "Ġmig": 1803,
      "Ġmort": 1804,
      "Ġmass": 1805,
      "Ġmcc": 1806,
      "Ġmult": 1807,
      "Ġmax": 1808,
      "Ġdoc": 1809,
      "Ġdeter": 1810,
      "Ġturn": 1811,
      "eless": 1812,
      "Ġfa": 1813,
      "Ġful": 1814,
      "Ġfore": 1815,
      "Ġfair": 1816,
      "Ġfact": 1817,
      "Ġaug": 1818,
      "Ġaust": 1819,
      "urr": 1820,
      "Ġhist": 1821,
      "Ġhow": 1822,
      "Ġhaw": 1823,
      "Ġharm": 1824,
      "Ġgrow": 1825,
      "ili": 1826,
      "ilt": 1827,
      "ilities": 1828,
      "Ġlay": 1829,
      "Ġwel": 1830,
      "Ġwest": 1831,
      "Ġwith": 1832,
      "Ġwater": 1833,
      "Ġnav": 1834,
      "Ġinit": 1835,
      "Ġincl": 1836,
      "Ġeur": 1837,
      "erson": 1838,
      "ament": 1839,
      "ulate": 1840,
      "aced": 1841,
      "acter": 1842,
      "Ġstud": 1843,
      "Ġvari": 1844,
      "other": 1845,
      "ived": 1846,
      "iving": 1847,
      "osing": 1848,
      "osition": 1849,
      "imate": 1850,
      "istan": 1851,
      "ires": 1852,
      "umber": 1853,
      "anda": 1854,
      "Ġod": 1855,
      "Ġju": 1856,
      "Ġjer": 1857,
      "Ġkar": 1858,
      "antly": 1859,
      "odes": 1860,
      "Ġshow": 1861,
      "Ġshort": 1862,
      "Ġpros": 1863,
      "ther": 1864,
      "iana": 1865,
      "iance": 1866,
      "Ġexam": 1867,
      "pton": 1868,
      "aked": 1869,
      "akers": 1870,
      "illing": 1871,
      "Ġsuff": 1872,
      "Ġalex": 1873,
      "ange": 1874,
      "asts": 1875,
      "astic": 1876,
      "ension": 1877,
      "Ġadmin": 1878,
      "Ġdisp": 1879,
      "Ġdiss": 1880,
      "Ġdisapp": 1881,
      "Ġscar": 1882,
      "Ġ170": 1883,
      "ights": 1884,
      "icked": 1885,
      "oking": 1886,
      "Ġå®": 1887,
      "Ġcollect": 1888,
      "Ġemer": 1889,
      "Ġemploy": 1890,
      "ocked": 1891,
      "Ġorig": 1892,
      "ailed": 1893,
      "rict": 1894,
      "Ġindic": 1895,
      "Ġ40": 1896,
      "apped": 1897,
      "Ġgreen": 1898,
      "ipping": 1899,
      "Ġtermin": 1900,
      "ridge": 1901,
      "Ġimpro": 1902,
      "Ġacqu": 1903,
      "Ġpriv": 1904,
      "Ġcount": 1905,
      "Ġfoot": 1906,
      "Ġinvestig": 1907,
      "greg": 1908,
      "52": 1909,
      "54": 1910,
      "61": 1911,
      "62": 1912,
      "63": 1913,
      "bon": 1914,
      "bing": 1915,
      "cer": 1916,
      "cle": 1917,
      "cess": 1918,
      "dra": 1919,
      "equ": 1920,
      "ebr": 1921,
      "gin": 1922,
      "hel": 1923,
      "hab": 1924,
      "house": 1925,
      "iat": 1926,
      "iest": 1927,
      "ji": 1928,
      "lig": 1929,
      "mo": 1930,
      "my": 1931,
      "mond": 1932,
      "nn": 1933,
      "oe": 1934,
      "ren": 1935,
      "ror": 1936,
      "ris": 1937,
      "rating": 1938,
      "sp": 1939,
      "tic": 1940,
      "uch": 1941,
      "view": 1942,
      "wer": 1943,
      "wal": 1944,
      "writ": 1945,
      "zy": 1946,
      "zed": 1947,
      "ÅĤ": 1948,
      "ä¸": 1949,
      "Ġit": 1950,
      "Ġess": 1951,
      "Ġell": 1952,
      "Ġath": 1953,
      "inated": 1954,
      "inary": 1955,
      "onal": 1956,
      "onia": 1957,
      "Ġsa": 1958,
      "Ġsin": 1959,
      "Ġsar": 1960,
      "Ġsand": 1961,
      "Ġsett": 1962,
      "Ġsouth": 1963,
      "ester": 1964,
      "Ġce": 1965,
      "Ġcri": 1966,
      "Ġcand": 1967,
      "Ġcab": 1968,
      "Ġcall": 1969,
      "Ġcru": 1970,
      "using": 1971,
      "inger": 1972,
      "ali": 1973,
      "alt": 1974,
      "alth": 1975,
      "alog": 1976,
      "Ġpu": 1977,
      "Ġpra": 1978,
      "Ġpay": 1979,
      "Ġpain": 1980,
      "Ġpast": 1981,
      "oral": 1982,
      "Ġru": 1983,
      "Ġrid": 1984,
      "Ġrod": 1985,
      "Ġroy": 1986,
      "Ġrout": 1987,
      "Ġbec": 1988,
      "Ġbir": 1989,
      "Ġbrow": 1990,
      "Ġburn": 1991,
      "Ġmy": 1992,
      "Ġmis": 1993,
      "Ġmath": 1994,
      "Ġdan": 1995,
      "Ġdar": 1996,
      "Ġdig": 1997,
      "isl": 1998,
      "ici": 1999,
      "icient": 2000,
      "Ġty": 2001,
      "Ġtar": 2002,
      "Ġtop": 2003,
      "Ġtour": 2004,
      "Ġtown": 2005,
      "itut": 2006,
      "eling": 2007,
      "eland": 2008,
      "Ġfur": 2009,
      "Ġfam": 2010,
      "Ġfab": 2011,
      "Ġfish": 2012,
      "Ġfund": 2013,
      "Ġfound": 2014,
      "Ġhun": 2015,
      "Ġhos": 2016,
      "Ġhost": 2017,
      "Ġhapp": 2018,
      "Ġgh": 2019,
      "Ġgod": 2020,
      "Ġgood": 2021,
      "room": 2022,
      "Ġly": 2023,
      "Ġlin": 2024,
      "Ġlist": 2025,
      "Ġlik": 2026,
      "Ġlong": 2027,
      "Ġwid": 2028,
      "Ġna": 2029,
      "Ġnar": 2030,
      "Ġnet": 2031,
      "Ġinn": 2032,
      "Ġinte": 2033,
      "ames": 2034,
      "ria": 2035,
      "rian": 2036,
      "uld": 2037,
      "uth": 2038,
      "aces": 2039,
      "Ġstart": 2040,
      "Ġvan": 2041,
      "Ġven": 2042,
      "Ġvers": 2043,
      "Ġvict": 2044,
      "ota": 2045,
      "ivity": 2046,
      "ada": 2047,
      "imed": 2048,
      "irm": 2049,
      "anded": 2050,
      "ager": 2051,
      "Ġjust": 2052,
      "esting": 2053,
      "ception": 2054,
      "Ġke": 2055,
      "Ġkey": 2056,
      "Ġchamp": 2057,
      "stone": 2058,
      "Ġshar": 2059,
      "ections": 2060,
      "Ġproject": 2061,
      "ife": 2062,
      "iang": 2063,
      "Ġexpress": 2064,
      "Ġspect": 2065,
      "aks": 2066,
      "ipe": 2067,
      "ipl": 2068,
      "aine": 2069,
      "Ġarg": 2070,
      "Ġthr": 2071,
      "Ġthir": 2072,
      "Ġalle": 2073,
      "Ġclar": 2074,
      "izes": 2075,
      "iber": 2076,
      "orse": 2077,
      "Ġadm": 2078,
      "Ġadvis": 2079,
      "Ġscr": 2080,
      "Ġflo": 2081,
      "ords": 2082,
      "icking": 2083,
      "anned": 2084,
      "Ġash": 2085,
      "Ġrespect": 2086,
      "Ġ##âĤ": 2087,
      "awa": 2088,
      "Ġbeh": 2089,
      "ancy": 2090,
      "Ġcontract": 2091,
      "Ġrecogn": 2092,
      "igned": 2093,
      "oys": 2094,
      "Ġquar": 2095,
      "Ġqual": 2096,
      "earing": 2097,
      "rong": 2098,
      "rich": 2099,
      "enced": 2100,
      "Ġphys": 2101,
      "Ġaccom": 2102,
      "Ġwhe": 2103,
      "Ġanaly": 2104,
      "airs": 2105,
      "Ġperform": 2106,
      "Ġintro": 2107,
      "ounds": 2108,
      "ertain": 2109,
      "ressed": 2110,
      "ports": 2111,
      "Ġlou": 2112,
      "Ġinform": 2113,
      "ushed": 2114,
      "Ġdoub": 2115,
      "Ġauthor": 2116,
      "Ġä¸": 2117,
      "Ġdevelop": 2118,
      "Ġgeor": 2119,
      "Ġrevol": 2120,
      "Ġcross": 2121,
      "Ġmagn": 2122,
      "Ġeconom": 2123,
      "Ġcollabor": 2124,
      "Ġoccup": 2125,
      "Ġillust": 2126,
      "Ġcelebr": 2127,
      "Ġprogram": 2128,
      "Ġtext": 2129,
      "Ġrepres": 2130,
      "Ġgovern": 2131,
      "Ġsuccess": 2132,
      "Ġadminist": 2133,
      "53": 2134,
      "ais": 2135,
      "ael": 2136,
      "aur": 2137,
      "aff": 2138,
      "augh": 2139,
      "bi": 2140,
      "bury": 2141,
      "cel": 2142,
      "cles": 2143,
      "down": 2144,
      "ek": 2145,
      "gl": 2146,
      "gor": 2147,
      "gra": 2148,
      "gress": 2149,
      "hus": 2150,
      "hem": 2151,
      "iro": 2152,
      "iec": 2153,
      "iot": 2154,
      "kin": 2155,
      "kes": 2156,
      "ken": 2157,
      "low": 2158,
      "mes": 2159,
      "ool": 2160,
      "oom": 2161,
      "och": 2162,
      "oop": 2163,
      "oks": 2164,
      "pan": 2165,
      "pass": 2166,
      "path": 2167,
      "ster": 2168,
      "ten": 2169,
      "time": 2170,
      "uk": 2171,
      "uing": 2172,
      "vin": 2173,
      "war": 2174,
      "wich": 2175,
      "yer": 2176,
      "zo": 2177,
      "äº": 2178,
      "ĠÃ": 2179,
      "Ġes": 2180,
      "Ġide": 2181,
      "Ġital": 2182,
      "iny": 2183,
      "inate": 2184,
      "erc": 2185,
      "ero": 2186,
      "eration": 2187,
      "ona": 2188,
      "onder": 2189,
      "Ġsed": 2190,
      "Ġsen": 2191,
      "Ġsac": 2192,
      "Ġsad": 2193,
      "Ġsax": 2194,
      "Ġsome": 2195,
      "aning": 2196,
      "anch": 2197,
      "anks": 2198,
      "Ġcin": 2199,
      "Ġcer": 2200,
      "Ġciv": 2201,
      "Ġcos": 2202,
      "Ġcad": 2203,
      "Ġcard": 2204,
      "Ġcry": 2205,
      "Ġcust": 2206,
      "Ġcult": 2207,
      "ati": 2208,
      "atives": 2209,
      "ingu": 2210,
      "inging": 2211,
      "ington": 2212,
      "une": 2213,
      "alist": 2214,
      "Ġped": 2215,
      "Ġpil": 2216,
      "Ġpul": 2217,
      "Ġpant": 2218,
      "Ġpath": 2219,
      "Ġpurs": 2220,
      "Ġby": 2221,
      "Ġbad": 2222,
      "Ġbab": 2223,
      "Ġbill": 2224,
      "Ġbath": 2225,
      "Ġbern": 2226,
      "Ġbrig": 2227,
      "Ġbuck": 2228,
      "Ġbomb": 2229,
      "Ġmas": 2230,
      "Ġmom": 2231,
      "Ġmist": 2232,
      "Ġmov": 2233,
      "Ġmah": 2234,
      "Ġmich": 2235,
      "Ġmys": 2236,
      "Ġmix": 2237,
      "Ġmech": 2238,
      "Ġdin": 2239,
      "Ġdim": 2240,
      "Ġdav": 2241,
      "Ġdark": 2242,
      "Ġdiff": 2243,
      "iced": 2244,
      "icing": 2245,
      "icate": 2246,
      "icated": 2247,
      "Ġta": 2248,
      "Ġtow": 2249,
      "itter": 2250,
      "itors": 2251,
      "itted": 2252,
      "itting": 2253,
      "itution": 2254,
      "ioned": 2255,
      "elf": 2256,
      "Ġfel": 2257,
      "Ġfri": 2258,
      "Ġfarm": 2259,
      "Ġax": 2260,
      "Ġaz": 2261,
      "Ġach": 2262,
      "Ġaqu": 2263,
      "lets": 2264,
      "Ġhen": 2265,
      "Ġhug": 2266,
      "Ġgig": 2267,
      "Ġgab": 2268,
      "Ġgard": 2269,
      "ential": 2270,
      "iling": 2271,
      "illy": 2272,
      "rog": 2273,
      "ros": 2274,
      "Ġlat": 2275,
      "Ġlar": 2276,
      "olis": 2277,
      "olic": 2278,
      "rain": 2279,
      "Ġwit": 2280,
      "Ġwind": 2281,
      "Ġwrit": 2282,
      "Ġwhere": 2283,
      "omet": 2284,
      "ecut": 2285,
      "ecess": 2286,
      "Ġnic": 2287,
      "Ġnorm": 2288,
      "ree": 2289,
      "reen": 2290,
      "Ġeast": 2291,
      "amb": 2292,
      "amed": 2293,
      "amps": 2294,
      "lying": 2295,
      "ula": 2296,
      "Ġstand": 2297,
      "Ġstab": 2298,
      "Ġread": 2299,
      "Ġreact": 2300,
      "Ġvent": 2301,
      "Ġvac": 2302,
      "Ġvill": 2303,
      "Ġview": 2304,
      "ima": 2305,
      "imal": 2306,
      "tery": 2307,
      "irs": 2308,
      "ument": 2309,
      "ander": 2310,
      "ago": 2311,
      "Ġjour": 2312,
      "Ġjew": 2313,
      "Ġkid": 2314,
      "aya": 2315,
      "pper": 2316,
      "ecting": 2317,
      "ective": 2318,
      "Ġcomment": 2319,
      "Ġexcl": 2320,
      "ocks": 2321,
      "aka": 2322,
      "aken": 2323,
      "Ġunivers": 2324,
      "orts": 2325,
      "orted": 2326,
      "Ġther": 2327,
      "uded": 2328,
      "Ġ27": 2329,
      "Ġ29": 2330,
      "ugg": 2331,
      "Ġclim": 2332,
      "ples": 2333,
      "play": 2334,
      "arted": 2335,
      "asted": 2336,
      "ensive": 2337,
      "Ġlear": 2338,
      "ishing": 2339,
      "Ġimag": 2340,
      "Ġimpl": 2341,
      "Ġresid": 2342,
      "Ġcomple": 2343,
      "Ġelev": 2344,
      "Ġcolle": 2345,
      "ached": 2346,
      "ologist": 2347,
      "Ġorch": 2348,
      "encing": 2349,
      "encies": 2350,
      "Ġcred": 2351,
      "Ġinters": 2352,
      "Ġcorn": 2353,
      "Ġcorr": 2354,
      "Ġfrank": 2355,
      "Ġgradu": 2356,
      "Ġtransform": 2357,
      "Ġsym": 2358,
      "Ġinspect": 2359,
      "apping": 2360,
      "Ġattract": 2361,
      "ported": 2362,
      "aft": 2363,
      "Ġeduc": 2364,
      "enny": 2365,
      "book": 2366,
      "lines": 2367,
      "Ġbreak": 2368,
      "ĠÂ£": 2369,
      "chester": 2370,
      "Ġincor": 2371,
      "Ġdemonst": 2372,
      "Ġobject": 2373,
      "Ġparticip": 2374,
      "Ġrepe": 2375,
      "Ġautom": 2376,
      "Ġäº": 2377,
      "Ġannoun": 2378,
      "Ġactiv": 2379,
      "Ġtemper": 2380,
      "Ġpromot": 2381,
      "Ġobserv": 2382,
      "ground": 2383,
      "Ġmechan": 2384,
      "81": 2385,
      "82": 2386,
      "83": 2387,
      "bc": 2388,
      "bra": 2389,
      "cent": 2390,
      "col": 2391,
      "cks": 2392,
      "da": 2393,
      "dam": 2394,
      "fa": 2395,
      "fect": 2396,
      "ho": 2397,
      "har": 2398,
      "hrop": 2399,
      "iam": 2400,
      "iant": 2401,
      "iod": 2402,
      "jo": 2403,
      "joy": 2404,
      "key": 2405,
      "kee": 2406,
      "lan": 2407,
      "lam": 2408,
      "lock": 2409,
      "mi": 2410,
      "met": 2411,
      "mers": 2412,
      "mont": 2413,
      "now": 2414,
      "oid": 2415,
      "pond": 2416,
      "ran": 2417,
      "ras": 2418,
      "rec": 2419,
      "rest": 2420,
      "rant": 2421,
      "rations": 2422,
      "rates": 2423,
      "sa": 2424,
      "sky": 2425,
      "tes": 2426,
      "tar": 2427,
      "tle": 2428,
      "uit": 2429,
      "uous": 2430,
      "ufact": 2431,
      "va": 2432,
      "vir": 2433,
      "wing": 2434,
      "yard": 2435,
      "Ð¸": 2436,
      "áĨ": 2437,
      "å¤": 2438,
      "æ°": 2439,
      "ĠË": 2440,
      "Ġom": 2441,
      "Ġiv": 2442,
      "Ġiss": 2443,
      "Ġult": 2444,
      "inating": 2445,
      "edy": 2446,
      "era": 2447,
      "eral": 2448,
      "erate": 2449,
      "erted": 2450,
      "erve": 2451,
      "Ġsant": 2452,
      "Ġsix": 2453,
      "aned": 2454,
      "anian": 2455,
      "Ġcit": 2456,
      "Ġcav": 2457,
      "Ġcann": 2458,
      "Ġcub": 2459,
      "Ġcanc": 2460,
      "Ġcost": 2461,
      "atively": 2462,
      "ares": 2463,
      "usted": 2464,
      "unch": 2465,
      "ales": 2466,
      "oration": 2467,
      "oria": 2468,
      "Ġris": 2469,
      "Ġrand": 2470,
      "Ġrain": 2471,
      "Ġrang": 2472,
      "Ġrail": 2473,
      "Ġrene": 2474,
      "Ġruss": 2475,
      "Ġbed": 2476,
      "Ġbon": 2477,
      "Ġban": 2478,
      "Ġband": 2479,
      "Ġboy": 2480,
      "Ġbah": 2481,
      "Ġbank": 2482,
      "Ġbene": 2483,
      "Ġbrad": 2484,
      "Ġbull": 2485,
      "Ġbright": 2486,
      "Ġmos": 2487,
      "Ġmir": 2488,
      "Ġmain": 2489,
      "Ġmann": 2490,
      "Ġmeth": 2491,
      "Ġdial": 2492,
      "Ġdub": 2493,
      "Ġdyn": 2494,
      "isa": 2495,
      "ician": 2496,
      "icity": 2497,
      "Ġten": 2498,
      "Ġtol": 2499,
      "Ġtom": 2500,
      "Ġtest": 2501,
      "Ġtang": 2502,
      "Ġtub": 2503,
      "Ġtrib": 2504,
      "Ġtou": 2505,
      "Ġtyp": 2506,
      "itary": 2507,
      "itable": 2508,
      "ela": 2509,
      "eled": 2510,
      "eline": 2511,
      "Ġfat": 2512,
      "Ġfol": 2513,
      "Ġfig": 2514,
      "Ġfem": 2515,
      "Ġfall": 2516,
      "Ġfire": 2517,
      "Ġfoll": 2518,
      "Ġaer": 2519,
      "urb": 2520,
      "Ġhay": 2521,
      "Ġhop": 2522,
      "Ġhav": 2523,
      "Ġhang": 2524,
      "Ġhall": 2525,
      "Ġhack": 2526,
      "Ġhind": 2527,
      "Ġhold": 2528,
      "Ġhaz": 2529,
      "Ġhung": 2530,
      "Ġgas": 2531,
      "Ġgold": 2532,
      "Ġgaz": 2533,
      "roy": 2534,
      "round": 2535,
      "Ġlight": 2536,
      "Ġlob": 2537,
      "olar": 2538,
      "ety": 2539,
      "Ġwav": 2540,
      "Ġwall": 2541,
      "Ġwarm": 2542,
      "Ġweek": 2543,
      "oming": 2544,
      "Ġnap": 2545,
      "Ġnick": 2546,
      "Ġnob": 2547,
      "Ġnik": 2548,
      "Ġnomin": 2549,
      "Ġnational": 2550,
      "chen": 2551,
      "Ġinj": 2552,
      "ription": 2553,
      "Ġstal": 2554,
      "Ġstre": 2555,
      "Ġstim": 2556,
      "Ġrein": 2557,
      "ige": 2558,
      "Ġve": 2559,
      "Ġvic": 2560,
      "Ġvoc": 2561,
      "Ġvib": 2562,
      "Ġveg": 2563,
      "oto": 2564,
      "otted": 2565,
      "osh": 2566,
      "osis": 2567,
      "adem": 2568,
      "Ġconcl": 2569,
      "Ġconvers": 2570,
      "Ġconduct": 2571,
      "isting": 2572,
      "eman": 2573,
      "empt": 2574,
      "ember": 2575,
      "Ġox": 2576,
      "essing": 2577,
      "aga": 2578,
      "ags": 2579,
      "agon": 2580,
      "ague": 2581,
      "Ġjur": 2582,
      "Ġkil": 2583,
      "Ġchild": 2584,
      "antic": 2585,
      "ston": 2586,
      "ayer": 2587,
      "Ġsher": 2588,
      "thy": 2589,
      "Ġexpect": 2590,
      "Ġexhib": 2591,
      "arded": 2592,
      "ogue": 2593,
      "ptic": 2594,
      "Ġspl": 2595,
      "Ġspir": 2596,
      "ellow": 2597,
      "Ġsud": 2598,
      "Ġsugg": 2599,
      "Ġarri": 2600,
      "Ġarrang": 2601,
      "Ġthor": 2602,
      "Ġthro": 2603,
      "udes": 2604,
      "Ġaltern": 2605,
      "Ġclin": 2606,
      "Ġcler": 2607,
      "Ġclos": 2608,
      "place": 2609,
      "ibly": 2610,
      "Ġcoord": 2611,
      "arts": 2612,
      "mental": 2613,
      "aped": 2614,
      "Ġlev": 2615,
      "Ġadvent": 2616,
      "Ġadapt": 2617,
      "ĠâĨ": 2618,
      "ĠâĻ": 2619,
      "Ġ197": 2620,
      "Ġ199": 2621,
      "Ġ187": 2622,
      "Ġ189": 2623,
      "Ġscul": 2624,
      "Ġ177": 2625,
      "Ġ179": 2626,
      "Ġflash": 2627,
      "oured": 2628,
      "rying": 2629,
      "Ġsex": 2630,
      "Ġsequ": 2631,
      "Ġsever": 2632,
      "Ġsepar": 2633,
      "Ġresear": 2634,
      "Ġreserv": 2635,
      "Ġ##âĨ": 2636,
      "Ġ##âĻ": 2637,
      "Ġå¤": 2638,
      "Ġcolon": 2639,
      "Ġbeg": 2640,
      "anced": 2641,
      "ancing": 2642,
      "ĠáĨ": 2643,
      "ocking": 2644,
      "ruction": 2645,
      "issa": 2646,
      "ache": 2647,
      "acher": 2648,
      "Ġque": 2649,
      "Ġquest": 2650,
      "Ġtrad": 2651,
      "eared": 2652,
      "outs": 2653,
      "Ġinterpr": 2654,
      "000": 2655,
      "inda": 2656,
      "Ġbarb": 2657,
      "Ġbox": 2658,
      "Ġconsult": 2659,
      "Ġconserv": 2660,
      "Ġcommem": 2661,
      "itional": 2662,
      "Ġwhis": 2663,
      "Ġany": 2664,
      "Ġperiod": 2665,
      "Ġcorres": 2666,
      "ounded": 2667,
      "Ġæ°": 2668,
      "Ġgrass": 2669,
      "Ġregul": 2670,
      "Ġregist": 2671,
      "ounted": 2672,
      "Ġze": 2673,
      "Ġdecre": 2674,
      "Ġinvol": 2675,
      "resses": 2676,
      "Ġweak": 2677,
      "Ġouts": 2678,
      "Ġmanufact": 2679,
      "Ġsteph": 2680,
      "head": 2681,
      "heim": 2682,
      "enna": 2683,
      "lined": 2684,
      "ushing": 2685,
      "Ġpolit": 2686,
      "Ġbreath": 2687,
      "Ġdoct": 2688,
      "Ġdiscip": 2689,
      "Ġdiscuss": 2690,
      "Ġmeas": 2691,
      "Ġinstall": 2692,
      "Ġreform": 2693,
      "Ġreflect": 2694,
      "ographic": 2695,
      "Ġsoft": 2696,
      "Ġaccept": 2697,
      "Ġacadem": 2698,
      "Ġdepart": 2699,
      "Ġbelie": 2700,
      "Ġcalcul": 2701,
      "umble": 2702,
      "umbled": 2703,
      "ymp": 2704,
      "Ġhero": 2705,
      "Ġpresent": 2706,
      "Ġauth": 2707,
      "Ġcharacter": 2708,
      "ropri": 2709,
      "Ġtreat": 2710,
      "umped": 2711,
      "Ġwork": 2712,
      "Ġreview": 2713,
      "Ġmaj": 2714,
      "Ġestab": 2715,
      "Ġsecret": 2716,
      "Ġmotor": 2717,
      "Ġdiag": 2718,
      "Ġsupervis": 2719,
      "weight": 2720,
      "Ġlegisl": 2721,
      "Ġastron": 2722,
      "Ġwrest": 2723,
      "Ġmurder": 2724,
      "Ġpublic": 2725,
      "Ġsynth": 2726,
      "Ġrespons": 2727,
      "Ġcritic": 2728,
      "Ġinflu": 2729,
      "Ġprincip": 2730,
      "Ġaugust": 2731,
      "Ġnarrow": 2732,
      "Ġintegr": 2733,
      "Ġquarter": 2734,
      "Ġrepresent": 2735,
      "Ġcivil": 2736,
      "Ġcorrespond": 2737,
      "84": 2738,
      "bu": 2739,
      "bal": 2740,
      "bit": 2741,
      "bro": 2742,
      "bers": 2743,
      "bound": 2744,
      "can": 2745,
      "car": 2746,
      "cious": 2747,
      "crib": 2748,
      "case": 2749,
      "cript": 2750,
      "cription": 2751,
      "dro": 2752,
      "dom": 2753,
      "die": 2754,
      "ean": 2755,
      "fted": 2756,
      "fts": 2757,
      "fire": 2758,
      "gie": 2759,
      "gment": 2760,
      "graph": 2761,
      "hl": 2762,
      "hs": 2763,
      "hen": 2764,
      "haw": 2765,
      "iac": 2766,
      "ios": 2767,
      "iors": 2768,
      "iable": 2769,
      "kov": 2770,
      "ld": 2771,
      "lor": 2772,
      "lad": 2773,
      "lav": 2774,
      "lass": 2775,
      "lov": 2776,
      "law": 2777,
      "lished": 2778,
      "mill": 2779,
      "mine": 2780,
      "most": 2781,
      "mith": 2782,
      "master": 2783,
      "mouth": 2784,
      "ny": 2785,
      "oa": 2786,
      "ois": 2787,
      "oud": 2788,
      "oint": 2789,
      "ping": 2790,
      "pur": 2791,
      "pir": 2792,
      "rn": 2793,
      "ratic": 2794,
      "sw": 2795,
      "sen": 2796,
      "tit": 2797,
      "ters": 2798,
      "ties": 2799,
      "ture": 2800,
      "uation": 2801,
      "uce": 2802,
      "uki": 2803,
      "wa": 2804,
      "yan": 2805,
      "yle": 2806,
      "á´": 2807,
      "æľ": 2808,
      "ĠÚ": 2809,
      "Ġing": 2810,
      "Ġip": 2811,
      "Ġans": 2812,
      "Ġanc": 2813,
      "Ġold": 2814,
      "Ġurg": 2815,
      "iner": 2816,
      "inity": 2817,
      "inting": 2818,
      "inking": 2819,
      "err": 2820,
      "erie": 2821,
      "erated": 2822,
      "erts": 2823,
      "onym": 2824,
      "Ġsi": 2825,
      "Ġsor": 2826,
      "Ġset": 2827,
      "Ġsust": 2828,
      "Ġsob": 2829,
      "Ġside": 2830,
      "Ġsout": 2831,
      "Ġsong": 2832,
      "Ġsaf": 2833,
      "Ġcow": 2834,
      "Ġcant": 2835,
      "Ġcoc": 2836,
      "Ġcass": 2837,
      "Ġcath": 2838,
      "ener": 2839,
      "ench": 2840,
      "eness": 2841,
      "atures": 2842,
      "usive": 2843,
      "ingly": 2844,
      "una": 2845,
      "unk": 2846,
      "Ġpin": 2847,
      "Ġpor": 2848,
      "Ġpow": 2849,
      "Ġpill": 2850,
      "Ġpav": 2851,
      "Ġpear": 2852,
      "Ġpier": 2853,
      "Ġpict": 2854,
      "Ġpitch": 2855,
      "Ġpower": 2856,
      "ori": 2857,
      "orate": 2858,
      "orous": 2859,
      "organ": 2860,
      "Ġrol": 2861,
      "Ġram": 2862,
      "Ġrul": 2863,
      "Ġrig": 2864,
      "Ġrum": 2865,
      "Ġrav": 2866,
      "Ġrud": 2867,
      "Ġrank": 2868,
      "Ġbot": 2869,
      "Ġbry": 2870,
      "Ġbord": 2871,
      "Ġbob": 2872,
      "Ġbru": 2873,
      "Ġbott": 2874,
      "Ġbapt": 2875,
      "Ġmu": 2876,
      "Ġmen": 2877,
      "Ġmans": 2878,
      "Ġmust": 2879,
      "Ġmob": 2880,
      "Ġmaster": 2881,
      "Ġmira": 2882,
      "Ġmaint": 2883,
      "Ġmyth": 2884,
      "Ġdor": 2885,
      "Ġdur": 2886,
      "Ġdro": 2887,
      "Ġday": 2888,
      "Ġdod": 2889,
      "Ġdang": 2890,
      "Ġdream": 2891,
      "Ġdipl": 2892,
      "icy": 2893,
      "icit": 2894,
      "icle": 2895,
      "icial": 2896,
      "icted": 2897,
      "ications": 2898,
      "icles": 2899,
      "icult": 2900,
      "Ġton": 2901,
      "Ġtas": 2902,
      "Ġtot": 2903,
      "Ġtab": 2904,
      "Ġtight": 2905,
      "Ġtob": 2906,
      "itated": 2907,
      "ione": 2908,
      "ele": 2909,
      "elt": 2910,
      "Ġfu": 2911,
      "Ġfir": 2912,
      "Ġfif": 2913,
      "Ġfoc": 2914,
      "Ġfour": 2915,
      "Ġfram": 2916,
      "Ġfix": 2917,
      "Ġfasc": 2918,
      "Ġfeder": 2919,
      "Ġfront": 2920,
      "Ġaver": 2921,
      "lem": 2922,
      "leton": 2923,
      "urer": 2924,
      "urch": 2925,
      "Ġhu": 2926,
      "Ġhes": 2927,
      "Ġhus": 2928,
      "Ġhab": 2929,
      "Ġhart": 2930,
      "Ġhorn": 2931,
      "Ġhouse": 2932,
      "Ġgest": 2933,
      "asy": 2934,
      "enton": 2935,
      "ilar": 2936,
      "roid": 2937,
      "rooms": 2938,
      "Ġles": 2939,
      "Ġlic": 2940,
      "Ġlad": 2941,
      "Ġlang": 2942,
      "Ġliz": 2943,
      "Ġline": 2944,
      "Ġlov": 2945,
      "Ġloy": 2946,
      "Ġlyn": 2947,
      "olly": 2948,
      "olia": 2949,
      "olph": 2950,
      "rage": 2951,
      "raft": 2952,
      "eted": 2953,
      "eting": 2954,
      "Ġwed": 2955,
      "Ġwild": 2956,
      "Ġwonder": 2957,
      "oma": 2958,
      "omed": 2959,
      "oman": 2960,
      "Ġnin": 2961,
      "Ġnon": 2962,
      "Ġnation": 2963,
      "Ġnut": 2964,
      "Ġnich": 2965,
      "Ġnarr": 2966,
      "cher": 2967,
      "chang": 2968,
      "read": 2969,
      "Ġinher": 2970,
      "Ġey": 2971,
      "Ġeight": 2972,
      "rim": 2973,
      "ulf": 2974,
      "acing": 2975,
      "acle": 2976,
      "acts": 2977,
      "ida": 2978,
      "idal": 2979,
      "iders": 2980,
      "idation": 2981,
      "idence": 2982,
      "Ġstan": 2983,
      "Ġstro": 2984,
      "Ġstock": 2985,
      "Ġstruct": 2986,
      "Ġstream": 2987,
      "Ġreject": 2988,
      "Ġreason": 2989,
      "iger": 2990,
      "Ġvo": 2991,
      "Ġvar": 2992,
      "otes": 2993,
      "oting": 2994,
      "iva": 2995,
      "ivated": 2996,
      "osph": 2997,
      "ado": 2998,
      "ims": 2999,
      "Ġconver": 3000,
      "istent": 3001,
      "irl": 3002,
      "emon": 3003,
      "emat": 3004,
      "ematic": 3005,
      "umn": 3006,
      "ums": 3007,
      "andon": 3008,
      "Ġoct": 3009,
      "essions": 3010,
      "agu": 3011,
      "Ġjan": 3012,
      "Ġjam": 3013,
      "Ġjac": 3014,
      "Ġjim": 3015,
      "Ġkh": 3016,
      "Ġkat": 3017,
      "Ġkath": 3018,
      "Ġcha": 3019,
      "Ġchem": 3020,
      "Ġchall": 3021,
      "Ġchron": 3022,
      "anted": 3023,
      "ppy": 3024,
      "ods": 3025,
      "Ġshad": 3026,
      "Ġship": 3027,
      "iah": 3028,
      "ateg": 3029,
      "Ġproce": 3030,
      "Ġproduct": 3031,
      "Ġprohib": 3032,
      "Ġproduc": 3033,
      "Ġprocess": 3034,
      "iform": 3035,
      "ardo": 3036,
      "pted": 3037,
      "Ġspr": 3038,
      "Ġspons": 3039,
      "Ġspark": 3040,
      "iev": 3041,
      "oper": 3042,
      "illes": 3043,
      "Ġunf": 3044,
      "Ġuns": 3045,
      "Ġunders": 3046,
      "Ġarab": 3047,
      "Ġtho": 3048,
      "Ġthank": 3049,
      "uding": 3050,
      "uge": 3051,
      "ugs": 3052,
      "phic": 3053,
      "phas": 3054,
      "icals": 3055,
      "asting": 3056,
      "apes": 3057,
      "aping": 3058,
      "enses": 3059,
      "orship": 3060,
      "Ġlet": 3061,
      "ishes": 3062,
      "ishment": 3063,
      "Ġado": 3064,
      "Ġscen": 3065,
      "Ġscra": 3066,
      "Ġscript": 3067,
      "Ġpret": 3068,
      "Ġpress": 3069,
      "ucks": 3070,
      "Ġflu": 3071,
      "oven": 3072,
      "Ġsee": 3073,
      "Ġsevent": 3074,
      "oker": 3075,
      "oken": 3076,
      "Ġenjoy": 3077,
      "anne": 3078,
      "anny": 3079,
      "Ġblind": 3080,
      "Ġnear": 3081,
      "acked": 3082,
      "Ġyank": 3083,
      "Ġimpress": 3084,
      "Ġresol": 3085,
      "Ġcompar": 3086,
      "Ġcomput": 3087,
      "Ġcompos": 3088,
      "Ġemphas": 3089,
      "Ġcontr": 3090,
      "Ġcontribut": 3091,
      "Ġrecord": 3092,
      "Ġrecru": 3093,
      "Ġrecomm": 3094,
      "Ġamaz": 3095,
      "Ġá´": 3096,
      "Ġ160": 3097,
      "aches": 3098,
      "aching": 3099,
      "Ġtrav": 3100,
      "Ġtravel": 3101,
      "Ġcare": 3102,
      "Ġcarl": 3103,
      "ailing": 3104,
      "rone": 3105,
      "asha": 3106,
      "Ġbound": 3107,
      "Ġconsol": 3108,
      "Ġconsum": 3109,
      "Ġconsider": 3110,
      "Ġcommand": 3111,
      "Ġcommission": 3112,
      "Ġbrit": 3113,
      "Ġapplic": 3114,
      "Ġaccel": 3115,
      "Ġaccess": 3116,
      "Ġaccord": 3117,
      "Ġaccount": 3118,
      "itioned": 3119,
      "Ġwhit": 3120,
      "aired": 3121,
      "Ġassum": 3122,
      "Ġassoc": 3123,
      "Ġassass": 3124,
      "Ġabb": 3125,
      "Ġintim": 3126,
      "Ġprev": 3127,
      "Ġprefer": 3128,
      "Ġprepar": 3129,
      "Ġfresh": 3130,
      "Ġtransmit": 3131,
      "Ġæľ": 3132,
      "Ġsyst": 3133,
      "Ġdecl": 3134,
      "ression": 3135,
      "onds": 3136,
      "Ġsurf": 3137,
      "Ġsurpr": 3138,
      "Ġsurround": 3139,
      "ighter": 3140,
      "overed": 3141,
      "Ġattend": 3142,
      "raction": 3143,
      "Ġmanif": 3144,
      "Ġforg": 3145,
      "duction": 3146,
      "Ġdefin": 3147,
      "verse": 3148,
      "Ġcurt": 3149,
      "Ġevol": 3150,
      "ride": 3151,
      "Ġimplement": 3152,
      "Ġinstrum": 3153,
      "ifications": 3154,
      "ographer": 3155,
      "aux": 3156,
      "Ġincre": 3157,
      "Ġstrength": 3158,
      "Ġenthus": 3159,
      "Ġbelong": 3160,
      "Ġharv": 3161,
      "Ġrepub": 3162,
      "Ġfrequ": 3163,
      "Ġlaur": 3164,
      "Ġlaugh": 3165,
      "hips": 3166,
      "Ġbuff": 3167,
      "Ġbuild": 3168,
      "Ġmodern": 3169,
      "Ġdraw": 3170,
      "Ġconstruct": 3171,
      "Ġground": 3172,
      "Ġconcent": 3173,
      "Ġangel": 3174,
      "Ġcraw": 3175,
      "Ġtheor": 3176,
      "borough": 3177,
      "coming": 3178,
      "Ġafter": 3179,
      "Ġengine": 3180,
      "Ġdivers": 3181,
      "Ġhuman": 3182,
      "work": 3183,
      "Ġutil": 3184,
      "ships": 3185,
      "Ġolymp": 3186,
      "Ġsatis": 3187,
      "Ġstraight": 3188,
      "Ġcycl": 3189,
      "Ġcamb": 3190,
      "Ġmemor": 3191,
      "Ġliter": 3192,
      "Ġpublish": 3193,
      "Ġadvoc": 3194,
      "Ġpleas": 3195,
      "Ġencour": 3196,
      "Ġsweet": 3197,
      "Ġfunction": 3198,
      "Ġfavor": 3199,
      "Ġsurvey": 3200,
      "Ġevery": 3201,
      "eeping": 3202,
      "Ġthreat": 3203,
      "Ġadjust": 3204,
      "Ġnegot": 3205,
      "Ġneighbour": 3206,
      "Ġbrief": 3207,
      "Ġmicro": 3208,
      "Ġmaxim": 3209,
      "Ġdocument": 3210,
      "Ġhistor": 3211,
      "Ġhosp": 3212,
      "Ġbehav": 3213,
      "Ġcustom": 3214,
      "Ġjourn": 3215,
      "Ġincorpor": 3216,
      "Ġestablish": 3217,
      "100": 3218,
      "aid": 3219,
      "aver": 3220,
      "aign": 3221,
      "ault": 3222,
      "bir": 3223,
      "band": 3224,
      "bow": 3225,
      "bone": 3226,
      "born": 3227,
      "body": 3228,
      "cce": 3229,
      "cia": 3230,
      "dd": 3231,
      "di": 3232,
      "dp": 3233,
      "dal": 3234,
      "dor": 3235,
      "dles": 3236,
      "dale": 3237,
      "eed": 3238,
      "ept": 3239,
      "ease": 3240,
      "eased": 3241,
      "fc": 3242,
      "fe": 3243,
      "fo": 3244,
      "fri": 3245,
      "fare": 3246,
      "fred": 3247,
      "gal": 3248,
      "gas": 3249,
      "gam": 3250,
      "gest": 3251,
      "hr": 3252,
      "hu": 3253,
      "hed": 3254,
      "hes": 3255,
      "hard": 3256,
      "hou": 3257,
      "ij": 3258,
      "iens": 3259,
      "iary": 3260,
      "iating": 3261,
      "ients": 3262,
      "jan": 3263,
      "ket": 3264,
      "kir": 3265,
      "li": 3266,
      "lon": 3267,
      "lies": 3268,
      "lik": 3269,
      "mus": 3270,
      "mal": 3271,
      "mad": 3272,
      "mate": 3273,
      "mons": 3274,
      "mission": 3275,
      "nat": 3276,
      "nel": 3277,
      "night": 3278,
      "oons": 3279,
      "ooth": 3280,
      "pm": 3281,
      "pat": 3282,
      "pet": 3283,
      "pow": 3284,
      "rs": 3285,
      "rent": 3286,
      "rical": 3287,
      "rons": 3288,
      "set": 3289,
      "side": 3290,
      "tra": 3291,
      "town": 3292,
      "uan": 3293,
      "uated": 3294,
      "uary": 3295,
      "uits": 3296,
      "uction": 3297,
      "vo": 3298,
      "vation": 3299,
      "via": 3300,
      "wan": 3301,
      "west": 3302,
      "wide": 3303,
      "water": 3304,
      "wright": 3305,
      "where": 3306,
      "zing": 3307,
      "zie": 3308,
      "§Ģ": 3309,
      "¾į": 3310,
      "ÃŁ": 3311,
      "Ð°": 3312,
      "Ð²": 3313,
      "à¶": 3314,
      "ä»": 3315,
      "å¹": 3316,
      "å¿": 3317,
      "åħ": 3318,
      "åį": 3319,
      "åı": 3320,
      "åĲ": 3321,
      "æĪ": 3322,
      "æĺ": 3323,
      "æĿ": 3324,
      "æŃ": 3325,
      "éĥ": 3326,
      "ï¬": 3327,
      "ĠÖ": 3328,
      "Ġot": 3329,
      "Ġib": 3330,
      "Ġern": 3331,
      "Ġ50": 3332,
      "Ġech": 3333,
      "Ġott": 3334,
      "ĩĮ": 3335,
      "īĪ": 3336,
      "Ļº": 3337,
      "Ļ½": 3338,
      "Ľ¸": 3339,
      "ľŁ": 3340,
      "ince": 3341,
      "inations": 3342,
      "inals": 3343,
      "eries": 3344,
      "onian": 3345,
      "Ġson": 3346,
      "Ġsund": 3347,
      "Ġsour": 3348,
      "Ġsne": 3349,
      "Ġsound": 3350,
      "Ġsigh": 3351,
      "Ġsched": 3352,
      "Ġsoph": 3353,
      "Ġsitu": 3354,
      "esa": 3355,
      "Ġcp": 3356,
      "Ġcu": 3357,
      "Ġcut": 3358,
      "Ġcod": 3359,
      "Ġcell": 3360,
      "Ġcock": 3361,
      "Ġcert": 3362,
      "Ġcaf": 3363,
      "Ġcatch": 3364,
      "enburg": 3365,
      "aters": 3366,
      "arus": 3367,
      "ario": 3368,
      "arily": 3369,
      "uster": 3370,
      "ingham": 3371,
      "alia": 3372,
      "alys": 3373,
      "alities": 3374,
      "alty": 3375,
      "alists": 3376,
      "Ġps": 3377,
      "Ġpic": 3378,
      "Ġpit": 3379,
      "Ġpam": 3380,
      "Ġput": 3381,
      "Ġpist": 3382,
      "Ġpip": 3383,
      "Ġpick": 3384,
      "Ġpatt": 3385,
      "Ġpenn": 3386,
      "Ġpray": 3387,
      "Ġpaul": 3388,
      "Ġpione": 3389,
      "orer": 3390,
      "ority": 3391,
      "Ġri": 3392,
      "Ġron": 3393,
      "Ġrat": 3394,
      "Ġric": 3395,
      "Ġrab": 3396,
      "Ġrow": 3397,
      "Ġrend": 3398,
      "Ġrib": 3399,
      "Ġrap": 3400,
      "Ġrust": 3401,
      "Ġble": 3402,
      "Ġbos": 3403,
      "Ġbay": 3404,
      "Ġbod": 3405,
      "Ġbart": 3406,
      "Ġbund": 3407,
      "Ġbour": 3408,
      "Ġbub": 3409,
      "Ġbik": 3410,
      "Ġbert": 3411,
      "Ġbeth": 3412,
      "Ġment": 3413,
      "Ġmatt": 3414,
      "Ġmach": 3415,
      "Ġmons": 3416,
      "Ġmck": 3417,
      "Ġmater": 3418,
      "Ġmuse": 3419,
      "Ġmouth": 3420,
      "Ġmount": 3421,
      "Ġmamm": 3422,
      "Ġda": 3423,
      "Ġdut": 3424,
      "Ġdram": 3425,
      "Ġdoll": 3426,
      "isions": 3427,
      "icia": 3428,
      "icular": 3429,
      "icians": 3430,
      "Ġtan": 3431,
      "Ġting": 3432,
      "Ġtent": 3433,
      "Ġtend": 3434,
      "Ġtens": 3435,
      "Ġtall": 3436,
      "Ġtack": 3437,
      "Ġtong": 3438,
      "Ġtrig": 3439,
      "Ġtuck": 3440,
      "iti": 3441,
      "ito": 3442,
      "itute": 3443,
      "itarian": 3444,
      "iona": 3445,
      "eli": 3446,
      "Ġfing": 3447,
      "Ġfal": 3448,
      "Ġfly": 3449,
      "Ġfut": 3450,
      "Ġfest": 3451,
      "Ġfant": 3452,
      "Ġfrow": 3453,
      "Ġfold": 3454,
      "Ġfern": 3455,
      "Ġfield": 3456,
      "Ġfurn": 3457,
      "Ġfitz": 3458,
      "Ġah": 3459,
      "Ġak": 3460,
      "Ġack": 3461,
      "leman": 3462,
      "urd": 3463,
      "urt": 3464,
      "urst": 3465,
      "urance": 3466,
      "urred": 3467,
      "Ġhot": 3468,
      "Ġhous": 3469,
      "Ġhell": 3470,
      "Ġhast": 3471,
      "Ġhors": 3472,
      "Ġhear": 3473,
      "Ġga": 3474,
      "Ġgi": 3475,
      "Ġgon": 3476,
      "Ġgor": 3477,
      "Ġgle": 3478,
      "Ġgent": 3479,
      "Ġgang": 3480,
      "Ġgib": 3481,
      "Ġgust": 3482,
      "Ġgym": 3483,
      "asion": 3484,
      "iler": 3485,
      "ilation": 3486,
      "ilia": 3487,
      "roc": 3488,
      "rome": 3489,
      "Ġli": 3490,
      "Ġlor": 3491,
      "Ġlas": 3492,
      "Ġlig": 3493,
      "Ġliv": 3494,
      "Ġless": 3495,
      "Ġlod": 3496,
      "Ġlie": 3497,
      "Ġlav": 3498,
      "Ġlock": 3499,
      "Ġluck": 3500,
      "Ġlux": 3501,
      "Ġliqu": 3502,
      "olk": 3503,
      "eta": 3504,
      "etary": 3505,
      "Ġwo": 3506,
      "Ġwes": 3507,
      "Ġwas": 3508,
      "Ġwol": 3509,
      "Ġwra": 3510,
      "Ġwell": 3511,
      "Ġnom": 3512,
      "Ġnecess": 3513,
      "char": 3514,
      "child": 3515,
      "reg": 3516,
      "reh": 3517,
      "Ġina": 3518,
      "Ġinqu": 3519,
      "Ġinhib": 3520,
      "Ġeye": 3521,
      "amo": 3522,
      "rik": 3523,
      "rix": 3524,
      "rier": 3525,
      "rial": 3526,
      "ulu": 3527,
      "ulous": 3528,
      "utes": 3529,
      "uther": 3530,
      "acon": 3531,
      "acted": 3532,
      "Ġsty": 3533,
      "Ġstir": 3534,
      "Ġstall": 3535,
      "Ġstorm": 3536,
      "Ġstair": 3537,
      "Ġstory": 3538,
      "Ġstev": 3539,
      "Ġstrong": 3540,
      "Ġstaff": 3541,
      "Ġreun": 3542,
      "Ġreass": 3543,
      "Ġreve": 3544,
      "Ġrevis": 3545,
      "Ġvul": 3546,
      "Ġvine": 3547,
      "Ġvik": 3548,
      "Ġvert": 3549,
      "otion": 3550,
      "otyp": 3551,
      "ivation": 3552,
      "ivid": 3553,
      "oster": 3554,
      "adt": 3555,
      "ador": 3556,
      "aders": 3557,
      "imet": 3558,
      "iments": 3559,
      "Ġconce": 3560,
      "Ġconqu": 3561,
      "Ġconvent": 3562,
      "Ġcongress": 3563,
      "ista": 3564,
      "istry": 3565,
      "istence": 3566,
      "istics": 3567,
      "irt": 3568,
      "eme": 3569,
      "emen": 3570,
      "empl": 3571,
      "uman": 3572,
      "andra": 3573,
      "Ġoce": 3574,
      "agg": 3575,
      "agh": 3576,
      "agre": 3577,
      "agged": 3578,
      "agger": 3579,
      "Ġja": 3580,
      "Ġjon": 3581,
      "Ġjess": 3582,
      "Ġjav": 3583,
      "Ġjack": 3584,
      "Ġjose": 3585,
      "esters": 3586,
      "abad": 3587,
      "ables": 3588,
      "Ġky": 3589,
      "Ġkin": 3590,
      "Ġken": 3591,
      "Ġking": 3592,
      "Ġkim": 3593,
      "Ġkill": 3594,
      "Ġkiss": 3595,
      "Ġchang": 3596,
      "Ġchap": 3597,
      "Ġchuck": 3598,
      "anting": 3599,
      "stream": 3600,
      "ques": 3601,
      "ayan": 3602,
      "aying": 3603,
      "ppe": 3604,
      "Ġshut": 3605,
      "Ġshif": 3606,
      "Ġshield": 3607,
      "ctions": 3608,
      "ectly": 3609,
      "ectors": 3610,
      "Ġprob": 3611,
      "Ġprost": 3612,
      "Ġproper": 3613,
      "ifer": 3614,
      "iful": 3615,
      "ifies": 3616,
      "ifying": 3617,
      "ths": 3618,
      "iano": 3619,
      "Ġcomed": 3620,
      "Ġcomfort": 3621,
      "Ġexce": 3622,
      "Ġexerc": 3623,
      "Ġexecut": 3624,
      "arding": 3625,
      "oga": 3626,
      "ogen": 3627,
      "ocation": 3628,
      "Ġspar": 3629,
      "Ġspart": 3630,
      "Ġspring": 3631,
      "aki": 3632,
      "ople": 3633,
      "enders": 3634,
      "vern": 3635,
      "Ġsuck": 3636,
      "Ġsucce": 3637,
      "Ġund": 3638,
      "Ġuniform": 3639,
      "Ġarc": 3640,
      "Ġdeal": 3641,
      "Ġdeep": 3642,
      "orting": 3643,
      "Ġthom": 3644,
      "Ġthrow": 3645,
      "Ġthere": 3646,
      "aves": 3647,
      "uder": 3648,
      "Ġalb": 3649,
      "Ġale": 3650,
      "Ġalban": 3651,
      "ugged": 3652,
      "phone": 3653,
      "angel": 3654,
      "Ġclut": 3655,
      "Ġclub": 3656,
      "Ġcloth": 3657,
      "pled": 3658,
      "izer": 3659,
      "Ġcool": 3660,
      "Ġcover": 3661,
      "Ġcoinc": 3662,
      "asters": 3663,
      "aper": 3664,
      "enson": 3665,
      "Ġlex": 3666,
      "Ġleon": 3667,
      "Ġlect": 3668,
      "Ġadvert": 3669,
      "Ġà¥": 3670,
      "Ġà¶": 3671,
      "Ġdismiss": 3672,
      "ĠâĦ": 3673,
      "ĠâĬ": 3674,
      "Ġscand": 3675,
      "Ġscient": 3676,
      "Ġscream": 3677,
      "Ġscreen": 3678,
      "Ġflour": 3679,
      "Ġflick": 3680,
      "Ġflaw": 3681,
      "Ġflood": 3682,
      "assed": 3683,
      "ourse": 3684,
      "athan": 3685,
      "oves": 3686,
      "ighted": 3687,
      "Ġseam": 3688,
      "Ġseem": 3689,
      "icky": 3690,
      "okes": 3691,
      "ledge": 3692,
      "Ġmarsh": 3693,
      "Ġenh": 3694,
      "Ġencom": 3695,
      "Ġenfor": 3696,
      "Ġenvir": 3697,
      "anner": 3698,
      "anning": 3699,
      "Ġblank": 3700,
      "Ġblaz": 3701,
      "Ġbloom": 3702,
      "Ġasc": 3703,
      "Ġtrust": 3704,
      "Ġtrump": 3705,
      "Ġye": 3706,
      "Ġyear": 3707,
      "Ġyield": 3708,
      "Ġimper": 3709,
      "Ġimport": 3710,
      "Ġplan": 3711,
      "Ġplat": 3712,
      "Ġresc": 3713,
      "Ġresemb": 3714,
      "Ġcompr": 3715,
      "obe": 3716,
      "Ġ##âģ": 3717,
      "Ġ##âĬ": 3718,
      "Ġå¹": 3719,
      "Ġå¿": 3720,
      "Ġåħ": 3721,
      "Ġåį": 3722,
      "Ġåı": 3723,
      "ĠåĲ": 3724,
      "awn": 3725,
      "Ġelim": 3726,
      "Ġbeat": 3727,
      "Ġbever": 3728,
      "Ġcontro": 3729,
      "Ġcontain": 3730,
      "Ġrecon": 3731,
      "Ġrecip": 3732,
      "Ġrecall": 3733,
      "Ġampl": 3734,
      "Ġameric": 3735,
      "teen": 3736,
      "teenth": 3737,
      "Ġquant": 3738,
      "Ġtract": 3739,
      "Ġtrack": 3740,
      "ologies": 3741,
      "ikh": 3742,
      "lington": 3743,
      "inson": 3744,
      "Ġorb": 3745,
      "Ġorph": 3746,
      "Ġorient": 3747,
      "Ġcarol": 3748,
      "Ġswim": 3749,
      "Ġswall": 3750,
      "Ġinterv": 3751,
      "Ġinteract": 3752,
      "Ġintercept": 3753,
      "Ġinterview": 3754,
      "inding": 3755,
      "Ġbarn": 3756,
      "Ġbaron": 3757,
      "Ġheart": 3758,
      "ashes": 3759,
      "Ġboun": 3760,
      "Ġcommon": 3761,
      "Ġcommit": 3762,
      "Ġbran": 3763,
      "Ġbrand": 3764,
      "Ġappe": 3765,
      "Ġappar": 3766,
      "Ġappropri": 3767,
      "Ġaccomm": 3768,
      "Ġparam": 3769,
      "Ġguit": 3770,
      "Ġanch": 3771,
      "Ġanim": 3772,
      "Ġanalog": 3773,
      "pse": 3774,
      "pson": 3775,
      "Ġmong": 3776,
      "Ġindust": 3777,
      "Ġindep": 3778,
      "Ġassist": 3779,
      "Ġassign": 3780,
      "Ġabd": 3781,
      "Ġabandon": 3782,
      "Ġintel": 3783,
      "Ġcorpor": 3784,
      "Ġprevent": 3785,
      "Ġfred": 3786,
      "Ġglad": 3787,
      "Ġgrav": 3788,
      "Ġgraph": 3789,
      "ĠæĪ": 3790,
      "Ġæĺ": 3791,
      "ĠæĿ": 3792,
      "ĠæŃ": 3793,
      "Ġgran": 3794,
      "Ġsynd": 3795,
      "Ġsymb": 3796,
      "ounts": 3797,
      "aneous": 3798,
      "Ġrelax": 3799,
      "Ġdecor": 3800,
      "isms": 3801,
      "ictions": 3802,
      "Ġinsul": 3803,
      "Ġweigh": 3804,
      "ribe": 3805,
      "ribution": 3806,
      "Ġsubd": 3807,
      "Ġsubject": 3808,
      "ference": 3809,
      "Ġattack": 3810,
      "Ġattempt": 3811,
      "racted": 3812,
      "Ġpeace": 3813,
      "Ġmanip": 3814,
      "Ġforb": 3815,
      "Ġsmall": 3816,
      "Ġsmooth": 3817,
      "Ġsteam": 3818,
      "Ġremark": 3819,
      "ennial": 3820,
      "Ġconfeder": 3821,
      "Ġdefe": 3822,
      "ushes": 3823,
      "Ġpoll": 3824,
      "Ġbrew": 3825,
      "Ġdistribut": 3826,
      "Ġdistinct": 3827,
      "Ġdistingu": 3828,
      "Ġdoor": 3829,
      "Ġagre": 3830,
      "Ġterror": 3831,
      "Ġeval": 3832,
      "Ġdiscover": 3833,
      "ateral": 3834,
      "Ġpoison": 3835,
      "Ġpatri": 3836,
      "Ġinstruct": 3837,
      "Ġinstitut": 3838,
      "Ġstret": 3839,
      "Ġstrang": 3840,
      "Ġstrugg": 3841,
      "Ġdepend": 3842,
      "Ġmole": 3843,
      "Ġdemoc": 3844,
      "otten": 3845,
      "umbling": 3846,
      "Ġobl": 3847,
      "Ġoblig": 3848,
      "Ġislam": 3849,
      "Ġrepro": 3850,
      "Ġpreserv": 3851,
      "load": 3852,
      "Ġcharl": 3853,
      "Ġä»": 3854,
      "Ġsimpl": 3855,
      "Ġsimilar": 3856,
      "Ġreturn": 3857,
      "Ġmerc": 3858,
      "Ġteen": 3859,
      "Ġarchit": 3860,
      "Ġarchae": 3861,
      "Ġéĥ": 3862,
      "Ġdrag": 3863,
      "Ġtreas": 3864,
      "Ġconstant": 3865,
      "Ġconstitu": 3866,
      "umping": 3867,
      "Ġexplo": 3868,
      "Ġexplos": 3869,
      "âĤĤ": 3870,
      "Ġrestra": 3871,
      "Ġrestrict": 3872,
      "Ġgroup": 3873,
      "Ġmedic": 3874,
      "Ġoffic": 3875,
      "Ġsupplement": 3876,
      "Ġcounc": 3877,
      "Ġcounter": 3878,
      "Ġscholar": 3879,
      "Ġportra": 3880,
      "Ġtwent": 3881,
      "Ġconcern": 3882,
      "scop": 3883,
      "Ġdrum": 3884,
      "beat": 3885,
      "Ġatl": 3886,
      "Ġupgrad": 3887,
      "Ġundert": 3888,
      "Ġengra": 3889,
      "Ġelectron": 3890,
      "Ġclear": 3891,
      "rington": 3892,
      "Ġturb": 3893,
      "Ġturk": 3894,
      "Ġlibr": 3895,
      "Ġlibert": 3896,
      "works": 3897,
      "Ġandre": 3898,
      "Ġmilit": 3899,
      "Ġwalk": 3900,
      "Ġprofess": 3901,
      "Ġsusp": 3902,
      "Ġsuspic": 3903,
      "Ġsocial": 3904,
      "Ġsociet": 3905,
      "Ġaston": 3906,
      "Ġphilos": 3907,
      "Ġphilipp": 3908,
      "Ġpurch": 3909,
      "Ġearth": 3910,
      "Ġshoot": 3911,
      "Ġpenet": 3912,
      "Ġtelec": 3913,
      "Ġflex": 3914,
      "Ġfacil": 3915,
      "Ġgrim": 3916,
      "Ġlabor": 3917,
      "Ġcheer": 3918,
      "Ġprogress": 3919,
      "Ġimmig": 3920,
      "Ġhoriz": 3921,
      "Ġhighlight": 3922,
      "ulsion": 3923,
      "Ġcondem": 3924,
      "Ġ##à¥": 3925,
      "Ġsubsid": 3926,
      "Ġjohn": 3927,
      "Ġfavour": 3928,
      "Ġrespond": 3929,
      "duced": 3930,
      "Ġpopular": 3931,
      "Ġbudd": 3932,
      "Ġabsor": 3933,
      "rified": 3934,
      "Ġvirt": 3935,
      "Ġapprox": 3936,
      "Ġbusiness": 3937,
      "Ġdifferent": 3938,
      "Ġneighbor": 3939,
      "Ġphotograph": 3940,
      "Ġbroadcast": 3941,
      "Ġdetermin": 3942,
      "Ġfulf": 3943,
      "Ġwithdra": 3944,
      "Ġnavig": 3945,
      "ÅĤaw": 3946,
      "Ġdaniel": 3947,
      "Ġtowns": 3948,
      "Ġfabric": 3949,
      "Ġaccompl": 3950,
      "Ġwheel": 3951,
      "Ġgeorg": 3952,
      "Ġadministr": 3953,
      "iece": 3954,
      "Ġesp": 3955,
      "Ġcosm": 3956,
      "Ġmoment": 3957,
      "Ġfriend": 3958,
      "Ġgigg": 3959,
      "Ġwitness": 3960,
      "Ġcomplex": 3961,
      "Ġorchest": 3962,
      "Ġbenef": 3963,
      "Ġreinfor": 3964,
      "Ġveget": 3965,
      "Ġjuris": 3966,
      "Ġsculpt": 3967,
      "Ġcommemor": 3968,
      "Ġastronom": 3969,
      "cribed": 3970,
      "Ġancest": 3971,
      "Ġdiplom": 3972,
      "Ġunderst": 3973,
      "Ġthought": 3974,
      "Ġenthusi": 3975,
      "Ġecho": 3976,
      "Ġacknow": 3977,
      "Ġencompass": 3978,
      "Ġenviron": 3979,
      "Ġaccommod": 3980,
      "Ġindepend": 3981,
      "200": 3982,
      "400": 3983,
      "500": 3984,
      "aus": 3985,
      "ait": 3986,
      "bl": 3987,
      "bn": 3988,
      "bin": 3989,
      "bar": 3990,
      "bis": 3991,
      "bel": 3992,
      "bil": 3993,
      "bian": 3994,
      "bie": 3995,
      "bell": 3996,
      "bled": 3997,
      "boy": 3998,
      "bling": 3999,
      "bai": 4000,
      "burn": 4001,
      "bbed": 4002,
      "ci": 4003,
      "cr": 4004,
      "cus": 4005,
      "cut": 4006,
      "cos": 4007,
      "cled": 4008,
      "cement": 4009,
      "cular": 4010,
      "cott": 4011,
      "come": 4012,
      "caster": 4013,
      "ciation": 4014,
      "cano": 4015,
      "craft": 4016,
      "din": 4017,
      "dly": 4018,
      "dog": 4019,
      "ea": 4020,
      "eon": 4021,
      "eing": 4022,
      "ead": 4023,
      "ever": 4024,
      "eav": 4025,
      "eff": 4026,
      "eve": 4027,
      "eenth": 4028,
      "fers": 4029,
      "fast": 4030,
      "fish": 4031,
      "fight": 4032,
      "fting": 4033,
      "fied": 4034,
      "face": 4035,
      "father": 4036,
      "front": 4037,
      "gb": 4038,
      "gi": 4039,
      "gus": 4040,
      "gun": 4041,
      "gic": 4042,
      "gos": 4043,
      "gart": 4044,
      "gence": 4045,
      "gins": 4046,
      "gio": 4047,
      "gets": 4048,
      "gments": 4049,
      "ghan": 4050,
      "hf": 4051,
      "hp": 4052,
      "hers": 4053,
      "had": 4054,
      "hand": 4055,
      "hile": 4056,
      "harm": 4057,
      "ipt": 4058,
      "iology": 4059,
      "iences": 4060,
      "iji": 4061,
      "jar": 4062,
      "jun": 4063,
      "jiang": 4064,
      "kt": 4065,
      "lu": 4066,
      "lers": 4067,
      "lim": 4068,
      "lif": 4069,
      "lord": 4070,
      "lide": 4071,
      "lier": 4072,
      "long": 4073,
      "like": 4074,
      "life": 4075,
      "ml": 4076,
      "mor": 4077,
      "mud": 4078,
      "mans": 4079,
      "mund": 4080,
      "mann": 4081,
      "mins": 4082,
      "mates": 4083,
      "more": 4084,
      "mering": 4085,
      "no": 4086,
      "nu": 4087,
      "nan": 4088,
      "nic": 4089,
      "nation": 4090,
      "nut": 4091,
      "nant": 4092,
      "nie": 4093,
      "nish": 4094,
      "name": 4095,
      "oor": 4096,
      "oul": 4097,
      "oir": 4098,
      "oise": 4099,
      "oft": 4100,
      "oids": 4101,
      "pes": 4102,
      "pit": 4103,
      "pro": 4104,
      "pre": 4105,
      "ply": 4106,
      "put": 4107,
      "pire": 4108,
      "pace": 4109,
      "power": 4110,
      "rr": 4111,
      "rus": 4112,
      "run": 4113,
      "rill": 4114,
      "rors": 4115,
      "rish": 4116,
      "rane": 4117,
      "rets": 4118,
      "rina": 4119,
      "sk": 4120,
      "so": 4121,
      "sel": 4122,
      "sey": 4123,
      "sburg": 4124,
      "tv": 4125,
      "tz": 4126,
      "tor": 4127,
      "tang": 4128,
      "tail": 4129,
      "tics": 4130,
      "truct": 4131,
      "uf": 4132,
      "uin": 4133,
      "uate": 4134,
      "uard": 4135,
      "uity": 4136,
      "uals": 4137,
      "uka": 4138,
      "vant": 4139,
      "vian": 4140,
      "vio": 4141,
      "ws": 4142,
      "wes": 4143,
      "wig": 4144,
      "wart": 4145,
      "word": 4146,
      "wick": 4147,
      "wise": 4148,
      "ware": 4149,
      "whel": 4150,
      "xt": 4151,
      "xy": 4152,
      "yu": 4153,
      "yst": 4154,
      "zen": 4155,
      "zech": 4156,
      "Â²": 4157,
      "Î¿": 4158,
      "ÏĤ": 4159,
      "Ð½": 4160,
      "Ð¾": 4161,
      "Ñĩ": 4162,
      "Ø§": 4163,
      "ä¹": 4164,
      "å°": 4165,
      "å·": 4166,
      "å¾": 4167,
      "åĬ": 4168,
      "åĽ": 4169,
      "æ²": 4170,
      "æĸ": 4171,
      "ç«": 4172,
      "çĶ": 4173,
      "ĠÄ": 4174,
      "ĠÛ": 4175,
      "Ġum": 4176,
      "Ġia": 4177,
      "Ġort": 4178,
      "Ġuc": 4179,
      "Ġ00": 4180,
      "Ġ80": 4181,
      "Ġ60": 4182,
      "Ġ70": 4183,
      "Ġille": 4184,
      "Ġira": 4185,
      "Ġii": 4186,
      "Ġ##à¦": 4187,
      "inter": 4188,
      "inates": 4189,
      "inned": 4190,
      "edge": 4191,
      "eron": 4192,
      "erly": 4193,
      "eria": 4194,
      "erry": 4195,
      "erman": 4196,
      "erland": 4197,
      "erator": 4198,
      "onent": 4199,
      "onents": 4200,
      "Ġsic": 4201,
      "Ġsas": 4202,
      "Ġsir": 4203,
      "Ġsie": 4204,
      "Ġsaw": 4205,
      "Ġsock": 4206,
      "Ġsah": 4207,
      "Ġsail": 4208,
      "Ġsold": 4209,
      "Ġsinc": 4210,
      "eses": 4211,
      "esco": 4212,
      "anic": 4213,
      "anese": 4214,
      "Ġcul": 4215,
      "Ġcig": 4216,
      "Ġcum": 4217,
      "Ġcup": 4218,
      "Ġcram": 4219,
      "Ġcertain": 4220,
      "Ġczech": 4221,
      "enly": 4222,
      "enary": 4223,
      "enge": 4224,
      "enched": 4225,
      "enstein": 4226,
      "atar": 4227,
      "atra": 4228,
      "atly": 4229,
      "atter": 4230,
      "atched": 4231,
      "arant": 4232,
      "aria": 4233,
      "arth": 4234,
      "arians": 4235,
      "usal": 4236,
      "usions": 4237,
      "ingo": 4238,
      "unes": 4239,
      "unte": 4240,
      "unning": 4241,
      "alan": 4242,
      "alized": 4243,
      "Ġpas": 4244,
      "Ġpig": 4245,
      "Ġpod": 4246,
      "Ġpak": 4247,
      "Ġpend": 4248,
      "Ġpens": 4249,
      "Ġpee": 4250,
      "Ġpup": 4251,
      "Ġpound": 4252,
      "Ġporn": 4253,
      "Ġpeng": 4254,
      "Ġpont": 4255,
      "Ġpuls": 4256,
      "orus": 4257,
      "oric": 4258,
      "orter": 4259,
      "orious": 4260,
      "Ġray": 4261,
      "Ġright": 4262,
      "Ġratt": 4263,
      "Ġround": 4264,
      "Ġrace": 4265,
      "Ġramp": 4266,
      "Ġraf": 4267,
      "Ġroll": 4268,
      "Ġrams": 4269,
      "Ġbes": 4270,
      "Ġbun": 4271,
      "Ġbom": 4272,
      "Ġbig": 4273,
      "Ġbum": 4274,
      "Ġbell": 4275,
      "Ġbast": 4276,
      "Ġbish": 4277,
      "Ġbey": 4278,
      "Ġbass": 4279,
      "Ġbron": 4280,
      "Ġbond": 4281,
      "Ġburg": 4282,
      "Ġbeng": 4283,
      "Ġbacks": 4284,
      "Ġbody": 4285,
      "Ġbonn": 4286,
      "Ġbacter": 4287,
      "Ġbother": 4288,
      "Ġbitter": 4289,
      "Ġmi": 4290,
      "Ġmend": 4291,
      "Ġmang": 4292,
      "Ġmall": 4293,
      "Ġmary": 4294,
      "Ġmack": 4295,
      "Ġmood": 4296,
      "Ġmind": 4297,
      "Ġmold": 4298,
      "Ġmane": 4299,
      "Ġmild": 4300,
      "Ġmoth": 4301,
      "Ġmason": 4302,
      "Ġmission": 4303,
      "Ġmention": 4304,
      "Ġdw": 4305,
      "Ġdat": 4306,
      "Ġdal": 4307,
      "Ġdent": 4308,
      "Ġdow": 4309,
      "Ġdog": 4310,
      "Ġdart": 4311,
      "Ġdors": 4312,
      "Ġdick": 4313,
      "Ġdust": 4314,
      "Ġdorm": 4315,
      "Ġdrow": 4316,
      "Ġdict": 4317,
      "Ġdaz": 4318,
      "Ġdress": 4319,
      "Ġdwell": 4320,
      "Ġdwar": 4321,
      "iser": 4322,
      "isan": 4323,
      "isation": 4324,
      "icz": 4325,
      "icon": 4326,
      "ican": 4327,
      "icide": 4328,
      "Ġts": 4329,
      "Ġtu": 4330,
      "Ġtil": 4331,
      "Ġtam": 4332,
      "Ġtod": 4333,
      "Ġtort": 4334,
      "Ġtick": 4335,
      "Ġtable": 4336,
      "Ġtatt": 4337,
      "Ġtail": 4338,
      "Ġtact": 4339,
      "Ġtai": 4340,
      "Ġtorn": 4341,
      "Ġtoss": 4342,
      "Ġtake": 4343,
      "iter": 4344,
      "itan": 4345,
      "itic": 4346,
      "itate": 4347,
      "itely": 4348,
      "itory": 4349,
      "itative": 4350,
      "itual": 4351,
      "ituted": 4352,
      "eld": 4353,
      "elin": 4354,
      "elet": 4355,
      "elly": 4356,
      "elves": 4357,
      "Ġfar": 4358,
      "Ġfus": 4359,
      "Ġfro": 4360,
      "Ġfib": 4361,
      "Ġfast": 4362,
      "Ġfight": 4363,
      "Ġfear": 4364,
      "Ġfail": 4365,
      "Ġfash": 4366,
      "Ġfier": 4367,
      "Ġfract": 4368,
      "Ġfuck": 4369,
      "Ġfung": 4370,
      "Ġfont": 4371,
      "Ġfright": 4372,
      "Ġfried": 4373,
      "Ġfellow": 4374,
      "Ġaus": 4375,
      "Ġaid": 4376,
      "Ġaim": 4377,
      "Ġapr": 4378,
      "Ġaward": 4379,
      "leg": 4380,
      "lean": 4381,
      "lements": 4382,
      "uro": 4383,
      "uration": 4384,
      "urity": 4385,
      "urally": 4386,
      "Ġhat": 4387,
      "Ġhas": 4388,
      "Ġhil": 4389,
      "Ġhut": 4390,
      "Ġhad": 4391,
      "Ġhem": 4392,
      "Ġhod": 4393,
      "Ġhend": 4394,
      "Ġhill": 4395,
      "Ġhud": 4396,
      "Ġhans": 4397,
      "Ġhann": 4398,
      "Ġhub": 4399,
      "Ġhob": 4400,
      "Ġhiss": 4401,
      "Ġhide": 4402,
      "Ġholl": 4403,
      "Ġhope": 4404,
      "Ġhuff": 4405,
      "Ġhaul": 4406,
      "Ġhyp": 4407,
      "Ġhills": 4408,
      "Ġgil": 4409,
      "Ġgam": 4410,
      "Ġgot": 4411,
      "Ġgem": 4412,
      "Ġgath": 4413,
      "Ġgene": 4414,
      "Ġgoth": 4415,
      "Ġgirl": 4416,
      "asia": 4417,
      "asian": 4418,
      "asped": 4419,
      "ilers": 4420,
      "ilian": 4421,
      "iliation": 4422,
      "rot": 4423,
      "rous": 4424,
      "rock": 4425,
      "rose": 4426,
      "ross": 4427,
      "roke": 4428,
      "Ġll": 4429,
      "Ġlon": 4430,
      "Ġlan": 4431,
      "Ġling": 4432,
      "Ġlun": 4433,
      "Ġlam": 4434,
      "Ġlac": 4435,
      "Ġlot": 4436,
      "Ġlos": 4437,
      "Ġlag": 4438,
      "Ġlith": 4439,
      "Ġlength": 4440,
      "Ġliving": 4441,
      "Ġlingu": 4442,
      "oli": 4443,
      "oln": 4444,
      "olt": 4445,
      "oles": 4446,
      "olate": 4447,
      "olition": 4448,
      "olesc": 4449,
      "race": 4450,
      "raine": 4451,
      "racy": 4452,
      "ether": 4453,
      "Ġww": 4454,
      "Ġwer": 4455,
      "Ġwet": 4456,
      "Ġwig": 4457,
      "Ġwand": 4458,
      "Ġward": 4459,
      "Ġwash": 4460,
      "Ġware": 4461,
      "Ġwinn": 4462,
      "Ġwolf": 4463,
      "omes": 4464,
      "ece": 4465,
      "ecution": 4466,
      "ecuted": 4467,
      "Ġ13": 4468,
      "Ġni": 4469,
      "Ġnr": 4470,
      "Ġnun": 4471,
      "Ġnur": 4472,
      "Ġnas": 4473,
      "Ġnam": 4474,
      "Ġnad": 4475,
      "Ġnag": 4476,
      "Ġnest": 4477,
      "Ġnow": 4478,
      "Ġnod": 4479,
      "Ġnuc": 4480,
      "Ġnaz": 4481,
      "Ġnerv": 4482,
      "Ġnipp": 4483,
      "Ġnurs": 4484,
      "Ġnumber": 4485,
      "Ġniger": 4486,
      "cha": 4487,
      "chi": 4488,
      "chy": 4489,
      "chem": 4490,
      "chaft": 4491,
      "real": 4492,
      "repr": 4493,
      "Ġinver": 4494,
      "Ġinhab": 4495,
      "Ġeat": 4496,
      "Ġeas": 4497,
      "Ġegy": 4498,
      "ersen": 4499,
      "ami": 4500,
      "amy": 4501,
      "amic": 4502,
      "rius": 4503,
      "rium": 4504,
      "rians": 4505,
      "riage": 4506,
      "lyn": 4507,
      "uli": 4508,
      "ules": 4509,
      "ulent": 4510,
      "ulum": 4511,
      "ulations": 4512,
      "ulating": 4513,
      "ulder": 4514,
      "utions": 4515,
      "aca": 4516,
      "acement": 4517,
      "ido": 4518,
      "idel": 4519,
      "idad": 4520,
      "idated": 4521,
      "idity": 4522,
      "idents": 4523,
      "Ġstation": 4524,
      "Ġstad": 4525,
      "Ġstem": 4526,
      "Ġstate": 4527,
      "Ġstamp": 4528,
      "Ġstiff": 4529,
      "Ġstuff": 4530,
      "Ġrey": 4531,
      "Ġreel": 4532,
      "Ġrever": 4533,
      "Ġreign": 4534,
      "Ġreport": 4535,
      "Ġreorgan": 4536,
      "igo": 4537,
      "igen": 4538,
      "igor": 4539,
      "igma": 4540,
      "Ġvow": 4541,
      "Ġvoy": 4542,
      "Ġvamp": 4543,
      "Ġvinc": 4544,
      "Ġveter": 4545,
      "ivo": 4546,
      "ivar": 4547,
      "ivering": 4548,
      "osure": 4549,
      "osex": 4550,
      "oshi": 4551,
      "oslav": 4552,
      "ader": 4553,
      "imes": 4554,
      "imental": 4555,
      "Ġconcept": 4556,
      "Ġcongreg": 4557,
      "istle": 4558,
      "istoc": 4559,
      "teries": 4560,
      "terior": 4561,
      "irmed": 4562,
      "emy": 4563,
      "emic": 4564,
      "emble": 4565,
      "umin": 4566,
      "uments": 4567,
      "ando": 4568,
      "Ġok": 4569,
      "Ġoak": 4570,
      "essa": 4571,
      "esses": 4572,
      "agan": 4573,
      "agen": 4574,
      "agers": 4575,
      "agne": 4576,
      "agement": 4577,
      "Ġjes": 4578,
      "Ġjen": 4579,
      "Ġjoy": 4580,
      "Ġjenn": 4581,
      "esty": 4582,
      "eston": 4583,
      "abi": 4584,
      "abul": 4585,
      "Ġkam": 4586,
      "Ġkir": 4587,
      "Ġkay": 4588,
      "Ġkend": 4589,
      "Ġkick": 4590,
      "Ġkee": 4591,
      "Ġkind": 4592,
      "Ġkore": 4593,
      "Ġkne": 4594,
      "Ġkaz": 4595,
      "Ġkitch": 4596,
      "Ġkrist": 4597,
      "Ġchec": 4598,
      "Ġchop": 4599,
      "Ġchart": 4600,
      "Ġchick": 4601,
      "Ġchore": 4602,
      "Ġchair": 4603,
      "Ġchev": 4604,
      "Ġcharm": 4605,
      "Ġchew": 4606,
      "Ġchief": 4607,
      "Ġchurch": 4608,
      "anthrop": 4609,
      "sts": 4610,
      "stan": 4611,
      "stand": 4612,
      "standing": 4613,
      "qual": 4614,
      "quis": 4615,
      "quet": 4616,
      "ayed": 4617,
      "oda": 4618,
      "oded": 4619,
      "oding": 4620,
      "odies": 4621,
      "Ġsham": 4622,
      "Ġshud": 4623,
      "Ġshov": 4624,
      "Ġshout": 4625,
      "Ġshare": 4626,
      "Ġshuff": 4627,
      "ctic": 4628,
      "Ġproc": 4629,
      "Ġproph": 4630,
      "Ġprote": 4631,
      "Ġpromin": 4632,
      "Ġproport": 4633,
      "Ġprovis": 4634,
      "Ġproced": 4635,
      "Ġproble": 4636,
      "ifier": 4637,
      "ifiers": 4638,
      "tha": 4639,
      "thor": 4640,
      "Ġexha": 4641,
      "Ġexception": 4642,
      "Ġexchang": 4643,
      "ogan": 4644,
      "oca": 4645,
      "pting": 4646,
      "ptions": 4647,
      "Ġspra": 4648,
      "Ġspot": 4649,
      "ieve": 4650,
      "akh": 4651,
      "oped": 4652,
      "opes": 4653,
      "oping": 4654,
      "illian": 4655,
      "very": 4656,
      "ellers": 4657,
      "Ġsupers": 4658,
      "Ġunp": 4659,
      "Ġuncom": 4660,
      "Ġunrel": 4661,
      "iped": 4662,
      "iper": 4663,
      "ipher": 4664,
      "Ġarr": 4665,
      "Ġargu": 4666,
      "Ġdead": 4667,
      "Ġdeploy": 4668,
      "Ġthin": 4669,
      "Ġthem": 4670,
      "Ġthick": 4671,
      "Ġthorn": 4672,
      "avia": 4673,
      "avian": 4674,
      "Ġalt": 4675,
      "Ġalter": 4676,
      "Ġalarm": 4677,
      "Ġalco": 4678,
      "ffin": 4679,
      "ugu": 4680,
      "phy": 4681,
      "phys": 4682,
      "Ġclaw": 4683,
      "Ġcliff": 4684,
      "Ġcloud": 4685,
      "pling": 4686,
      "izations": 4687,
      "Ġcou": 4688,
      "Ġcoch": 4689,
      "Ġcoop": 4690,
      "Ġcoast": 4691,
      "Ġcook": 4692,
      "Ġcoup": 4693,
      "Ġcough": 4694,
      "apy": 4695,
      "apolis": 4696,
      "ensely": 4697,
      "Ġleaf": 4698,
      "Ġadul": 4699,
      "Ġadmit": 4700,
      "Ġadolesc": 4701,
      "Ġà¯": 4702,
      "Ġà²": 4703,
      "Ġdisg": 4704,
      "Ġdism": 4705,
      "Ġdispl": 4706,
      "Ġdiscl": 4707,
      "Ġdispers": 4708,
      "Ġdisplay": 4709,
      "Ġdisagre": 4710,
      "Ġâī": 4711,
      "Ġâĺ": 4712,
      "unders": 4713,
      "Ġscre": 4714,
      "Ġscot": 4715,
      "Ġscram": 4716,
      "Ġscrew": 4717,
      "Ġpron": 4718,
      "Ġprel": 4719,
      "Ġprison": 4720,
      "eyer": 4721,
      "Ġfled": 4722,
      "Ġflor": 4723,
      "Ġflut": 4724,
      "Ġflow": 4725,
      "Ġflav": 4726,
      "Ġflank": 4727,
      "ova": 4728,
      "overs": 4729,
      "Ġsear": 4730,
      "Ġseas": 4731,
      "Ġseason": 4732,
      "oko": 4733,
      "pered": 4734,
      "Ġmarl": 4735,
      "Ġmarx": 4736,
      "Ġenl": 4737,
      "Ġener": 4738,
      "Ġencl": 4739,
      "Ġblog": 4740,
      "Ġblanc": 4741,
      "Ġblock": 4742,
      "Ġblood": 4743,
      "Ġneed": 4744,
      "Ġneur": 4745,
      "Ġneut": 4746,
      "Ġyor": 4747,
      "Ġyoun": 4748,
      "Ġyouth": 4749,
      "Ġyours": 4750,
      "Ġyellow": 4751,
      "Ġimpr": 4752,
      "Ġplant": 4753,
      "Ġresul": 4754,
      "Ġresist": 4755,
      "Ġresign": 4756,
      "Ġcompan": 4757,
      "Ġcompens": 4758,
      "Ġcompass": 4759,
      "Ġcomplet": 4760,
      "Ġcompreh": 4761,
      "Ġ##âī": 4762,
      "Ġ##âĺ": 4763,
      "Ġå°": 4764,
      "Ġå·": 4765,
      "Ġå¾": 4766,
      "ĠåĬ": 4767,
      "ĠåĽ": 4768,
      "away": 4769,
      "awned": 4770,
      "geon": 4771,
      "Ġelement": 4772,
      "Ġcolor": 4773,
      "Ġcolumb": 4774,
      "Ġbear": 4775,
      "Ġbeaut": 4776,
      "Ġempt": 4777,
      "Ġcontest": 4778,
      "Ġcontrol": 4779,
      "bery": 4780,
      "berry": 4781,
      "Ġrecre": 4782,
      "Ġrecover": 4783,
      "Ġamend": 4784,
      "aha": 4785,
      "ahn": 4786,
      "ruption": 4787,
      "Ġslo": 4788,
      "Ġslam": 4789,
      "Ġslov": 4790,
      "Ġslight": 4791,
      "acht": 4792,
      "Ġquart": 4793,
      "Ġquick": 4794,
      "Ġtraff": 4795,
      "ologists": 4796,
      "ika": 4797,
      "hern": 4798,
      "Ġorth": 4799,
      "Ġcarp": 4800,
      "rows": 4801,
      "Ġinterc": 4802,
      "Ġinterrupt": 4803,
      "rice": 4804,
      "Ġbarr": 4805,
      "Ġhealth": 4806,
      "ashi": 4807,
      "Ġphill": 4808,
      "Ġpharm": 4809,
      "Ġbook": 4810,
      "Ġconsul": 4811,
      "Ġconsist": 4812,
      "Ġconsequ": 4813,
      "Ġcommod": 4814,
      "Ġcommerc": 4815,
      "Ġbrun": 4816,
      "Ġbrut": 4817,
      "Ġbritt": 4818,
      "Ġappear": 4819,
      "Ġapprec": 4820,
      "Ġappoint": 4821,
      "Ġaccur": 4822,
      "Ġaccum": 4823,
      "Ġaccident": 4824,
      "ulture": 4825,
      "Ġparas": 4826,
      "Ġparad": 4827,
      "Ġguard": 4828,
      "Ġguerr": 4829,
      "Ġguarant": 4830,
      "Ġwhite": 4831,
      "Ġank": 4832,
      "Ġanx": 4833,
      "Ġanat": 4834,
      "iere": 4835,
      "Ġmonarch": 4836,
      "Ġcrus": 4837,
      "Ġpermit": 4838,
      "Ġindivid": 4839,
      "Ġassess": 4840,
      "Ġassemb": 4841,
      "Ġabst": 4842,
      "Ġintr": 4843,
      "Ġintent": 4844,
      "cla": 4845,
      "cliff": 4846,
      "Ġ49": 4847,
      "active": 4848,
      "ielder": 4849,
      "Ġprep": 4850,
      "Ġfrust": 4851,
      "Ġglac": 4852,
      "Ġglob": 4853,
      "Ġgrace": 4854,
      "Ġgramm": 4855,
      "Ġtransfer": 4856,
      "Ġtransport": 4857,
      "eves": 4858,
      "evelop": 4859,
      "Ġæ²": 4860,
      "Ġæĸ": 4861,
      "Ġgren": 4862,
      "Ġregular": 4863,
      "erto": 4864,
      "Ġsyl": 4865,
      "Ġsymm": 4866,
      "Ġrelig": 4867,
      "Ġreloc": 4868,
      "Ġrelations": 4869,
      "Ġreluct": 4870,
      "Ġinvent": 4871,
      "ernal": 4872,
      "ernity": 4873,
      "Ġweap": 4874,
      "Ġwebs": 4875,
      "Ġwealth": 4876,
      "enez": 4877,
      "ribute": 4878,
      "ributed": 4879,
      "yson": 4880,
      "yster": 4881,
      "arez": 4882,
      "Ġdesp": 4883,
      "Ġdesper": 4884,
      "Ġoutf": 4885,
      "Ġoutlaw": 4886,
      "Ġskelet": 4887,
      "Ġpeas": 4888,
      "Ġroof": 4889,
      "Ġforce": 4890,
      "rams": 4891,
      "Ġsmash": 4892,
      "Ġremov": 4893,
      "Ġremix": 4894,
      "Ġremember": 4895,
      "hea": 4896,
      "Ġloos": 4897,
      "duce": 4898,
      "Ġanth": 4899,
      "Ġantib": 4900,
      "Ġanticip": 4901,
      "Ġantiqu": 4902,
      "Ġanthrop": 4903,
      "Ġconfig": 4904,
      "Ġconfron": 4905,
      "Ġdefend": 4906,
      "box": 4907,
      "boat": 4908,
      "hampton": 4909,
      "lining": 4910,
      "Ġpolic": 4911,
      "Ġdisturb": 4912,
      "etta": 4913,
      "etto": 4914,
      "ĠÂ°": 4915,
      "Ġdoug": 4916,
      "Ġgrey": 4917,
      "ipper": 4918,
      "Ġaggreg": 4919,
      "Ġaggress": 4920,
      "Ġcurr": 4921,
      "Ġcurs": 4922,
      "Ġterrit": 4923,
      "ilda": 4924,
      "ilding": 4925,
      "Ġevent": 4926,
      "Ġevac": 4927,
      "ridges": 4928,
      "Ġimpat": 4929,
      "pects": 4930,
      "pected": 4931,
      "pective": 4932,
      "Ġmean": 4933,
      "Ġmead": 4934,
      "Ġmeaning": 4935,
      "Ġinstinct": 4936,
      "ographical": 4937,
      "Ġsof": 4938,
      "enger": 4939,
      "engers": 4940,
      "Ġstrateg": 4941,
      "Ġdepos": 4942,
      "jected": 4943,
      "Ġç«": 4944,
      "ĠçĶ": 4945,
      "Ġentr": 4946,
      "Ġenter": 4947,
      "Ġentertain": 4948,
      "Ġentrepr": 4949,
      "Ġpriest": 4950,
      "Ġfeat": 4951,
      "Ġmoham": 4952,
      "Ġdeleg": 4953,
      "Ġobt": 4954,
      "Ġobst": 4955,
      "yme": 4956,
      "Ġisa": 4957,
      "Ġisra": 4958,
      "Ġisab": 4959,
      "Ġisland": 4960,
      "Ġpartners": 4961,
      "lett": 4962,
      "Ġeru": 4963,
      "Ġsnow": 4964,
      "Ġsniff": 4965,
      "Ġcauc": 4966,
      "Ġfreed": 4967,
      "Ġoverlo": 4968,
      "Ġoverwhel": 4969,
      "Ġknow": 4970,
      "Ġä¹": 4971,
      "ontin": 4972,
      "Ġserge": 4973,
      "Ġsalv": 4974,
      "Ġcreep": 4975,
      "Ġretre": 4976,
      "Ġretail": 4977,
      "Ġmerch": 4978,
      "Ġteach": 4979,
      "ropical": 4980,
      "Ġlaun": 4981,
      "Ġdevast": 4982,
      "fordshire": 4983,
      "laus": 4984,
      "Ġbuzz": 4985,
      "astern": 4986,
      "Ġnotice": 4987,
      "Ġconstra": 4988,
      "Ġgross": 4989,
      "Ġirrit": 4990,
      "Ġannoy": 4991,
      "Ġannex": 4992,
      "Ġgeomet": 4993,
      "Ġworks": 4994,
      "Ġexped": 4995,
      "Ġexpans": 4996,
      "Ġsupport": 4997,
      "Ġuk": 4998,
      "Ġschool": 4999,
      "Ġportray": 5000,
      "Ġfool": 5001,
      "Ġavail": 5002,
      "Ġconcurr": 5003,
      "Ġprotest": 5004,
      "Ġcrack": 5005,
      "Ġcrafts": 5006,
      "Ġredes": 5007,
      "Ġreduc": 5008,
      "Ġtriang": 5009,
      "ectional": 5010,
      "Ġextra": 5011,
      "Ġextre": 5012,
      "Ġtheat": 5013,
      "bek": 5014,
      "boro": 5015,
      "borne": 5016,
      "burgh": 5017,
      "Ġatm": 5018,
      "Ġestim": 5019,
      "Ġupd": 5020,
      "Ġsecond": 5021,
      "Ġpersu": 5022,
      "Ġperson": 5023,
      "Ġmeta": 5024,
      "Ġmotors": 5025,
      "Ġdiam": 5026,
      "Ġdioc": 5027,
      "Ġafric": 5028,
      "Ġapart": 5029,
      "Ġapolog": 5030,
      "Ġapost": 5031,
      "idential": 5032,
      "Ġviet": 5033,
      "Ġundergo": 5034,
      "gging": 5035,
      "Ġsolo": 5036,
      "Ġclean": 5037,
      "Ġraj": 5038,
      "Ġtox": 5039,
      "Ġtempor": 5040,
      "Ġcollaps": 5041,
      "Ġendeav": 5042,
      "Ġtroub": 5043,
      "Ġhelm": 5044,
      "Ġvolunte": 5045,
      "Ġcanad": 5046,
      "atching": 5047,
      "Ġpalest": 5048,
      "Ġmiddle": 5049,
      "Ġfilmm": 5050,
      "Ġafford": 5051,
      "Ġexcav": 5052,
      "Ġarmen": 5053,
      "aulted": 5054,
      "aults": 5055,
      "worth": 5056,
      "zzle": 5057,
      "Ġillum": 5058,
      "Ġsquad": 5059,
      "Ġsquee": 5060,
      "Ġdirector": 5061,
      "Ġhonor": 5062,
      "Ġlandsc": 5063,
      "Ġprofession": 5064,
      "Ġconvinc": 5065,
      "Ġphilanthrop": 5066,
      "Ġsignific": 5067,
      "Ġcasual": 5068,
      "Ġcapital": 5069,
      "Ġpurp": 5070,
      "Ġearn": 5071,
      "Ġobsc": 5072,
      "person": 5073,
      "Ġrhyth": 5074,
      "Ġmatth": 5075,
      "Ġmurm": 5076,
      "Ġimmort": 5077,
      "bbing": 5078,
      "Ġcircul": 5079,
      "Ġcampaign": 5080,
      "Ġconnect": 5081,
      "Ġembarr": 5082,
      "Ġdescend": 5083,
      "Ġdescrib": 5084,
      "kinson": 5085,
      "pool": 5086,
      "point": 5087,
      "Ġ##à¯": 5088,
      "Ġsemin": 5089,
      "Ġhydro": 5090,
      "Ġnovel": 5091,
      "Ġrebu": 5092,
      "Ġexperiment": 5093,
      "Ġspeech": 5094,
      "Ġsweat": 5095,
      "Ġjohann": 5096,
      "bourg": 5097,
      "Ġdestro": 5098,
      "Ġdestroy": 5099,
      "Ġtunis": 5100,
      "Ġferr": 5101,
      "Ġeffect": 5102,
      "Ġclaud": 5103,
      "Ġcourt": 5104,
      "holder": 5105,
      "Ġrenov": 5106,
      "Ġbutter": 5107,
      "Ġbattles": 5108,
      "Ġfragment": 5109,
      "Ġgerman": 5110,
      "Ġrequire": 5111,
      "Ġvirgin": 5112,
      "Ġinternation": 5113,
      "Ġsubstant": 5114,
      "break": 5115,
      "holders": 5116,
      "Ġnatural": 5117,
      "Ġoptim": 5118,
      "Ġjeff": 5119,
      "Ġpsychiat": 5120,
      "missions": 5121,
      "market": 5122,
      "Ġsleep": 5123,
      "Ġpaper": 5124,
      "Ġborrow": 5125,
      "Ġbetray": 5126,
      "Ġmunicip": 5127,
      "Ġdeterior": 5128,
      "Ġforeign": 5129,
      "Ġaustral": 5130,
      "Ġharmon": 5131,
      "iliar": 5132,
      "Ġeurope": 5133,
      "Ġshowc": 5134,
      "Ġdissol": 5135,
      "Ġprivile": 5136,
      "Ġfootball": 5137,
      "liga": 5138,
      "walk": 5139,
      "writer": 5140,
      "writing": 5141,
      "Ġathlet": 5142,
      "Ġcrime": 5143,
      "Ġcandid": 5144,
      "Ġcabin": 5145,
      "Ġbirth": 5146,
      "iciency": 5147,
      "Ġtarget": 5148,
      "itutes": 5149,
      "Ġlyric": 5150,
      "Ġinnov": 5151,
      "uldn": 5152,
      "Ġchampions": 5153,
      "Ġargent": 5154,
      "Ġalleg": 5155,
      "Ġadmir": 5156,
      "Ġaccompan": 5157,
      "Ġlouis": 5158,
      "Ġrevolution": 5159,
      "aurus": 5160,
      "aughter": 5161,
      "pathy": 5162,
      "Ġsacrif": 5163,
      "Ġcryst": 5164,
      "Ġpedest": 5165,
      "Ġpilg": 5166,
      "Ġdifficult": 5167,
      "itutional": 5168,
      "Ġstandard": 5169,
      "Ġstabil": 5170,
      "Ġkidn": 5171,
      "Ġsymph": 5172,
      "keeper": 5173,
      "Ġcitiz": 5174,
      "Ġcaval": 5175,
      "Ġrenew": 5176,
      "Ġmethod": 5177,
      "Ġtouch": 5178,
      "Ġfemin": 5179,
      "Ġkilomet": 5180,
      "Ġsuggest": 5181,
      "Ġthorough": 5182,
      "Ġquestion": 5183,
      "Ġinterpret": 5184,
      "Ġauthent": 5185,
      "Ġdiagn": 5186,
      "Ġsynthes": 5187,
      "hawk": 5188,
      "Ġansw": 5189,
      "onymous": 5190,
      "Ġsustain": 5191,
      "Ġdanger": 5192,
      "Ġhabit": 5193,
      "Ġjacob": 5194,
      "Ġrecommend": 5195,
      "Ġmanifest": 5196,
      "Ġrepublic": 5197,
      "Ġhospital": 5198,
      "ÃŁe": 5199,
      "alysis": 5200,
      "Ġgonz": 5201,
      "Ġgymn": 5202,
      "Ġinaug": 5203,
      "estershire": 5204,
      "Ġcontrovers": 5205,
      "Ġreconc": 5206,
      "Ġguitar": 5207,
      "Ġintellect": 5208,
      "Ġsubdiv": 5209,
      "Ġarchitect": 5210,
      "Ġphilosoph": 5211,
      "Ġacknowled": 5212,
      "Ġcigar": 5213,
      "Ġnucle": 5214,
      "Ġegypt": 5215,
      "osexual": 5216,
      "Ġshudder": 5217,
      "Ġalcohol": 5218,
      "Ġsymmet": 5219,
      "Ġentreprene": 5220,
      "..": 5221,
      "72": 5222,
      "92": 5223,
      "aa": 5224,
      "aar": 5225,
      "aun": 5226,
      "aic": 5227,
      "aud": 5228,
      "aque": 5229,
      "aja": 5230,
      "bus": 5231,
      "bas": 5232,
      "bot": 5233,
      "bia": 5234,
      "bard": 5235,
      "bast": 5236,
      "bish": 5237,
      "bage": 5238,
      "bles": 5239,
      "bber": 5240,
      "bach": 5241,
      "bons": 5242,
      "bane": 5243,
      "bana": 5244,
      "base": 5245,
      "brid": 5246,
      "bla": 5247,
      "bright": 5248,
      "backs": 5249,
      "bidae": 5250,
      "boys": 5251,
      "bula": 5252,
      "cd": 5253,
      "cs": 5254,
      "cz": 5255,
      "con": 5256,
      "cor": 5257,
      "cion": 5258,
      "cas": 5259,
      "cot": 5260,
      "cies": 5261,
      "cie": 5262,
      "cated": 5263,
      "cous": 5264,
      "cell": 5265,
      "cine": 5266,
      "cour": 5267,
      "cely": 5268,
      "cock": 5269,
      "cons": 5270,
      "cling": 5271,
      "cup": 5272,
      "core": 5273,
      "cane": 5274,
      "cover": 5275,
      "care": 5276,
      "cade": 5277,
      "cats": 5278,
      "cala": 5279,
      "cements": 5280,
      "cience": 5281,
      "cule": 5282,
      "dc": 5283,
      "df": 5284,
      "des": 5285,
      "dad": 5286,
      "dia": 5287,
      "dish": 5288,
      "dled": 5289,
      "dman": 5290,
      "due": 5291,
      "dong": 5292,
      "dict": 5293,
      "drop": 5294,
      "days": 5295,
      "ei": 5296,
      "eo": 5297,
      "eer": 5298,
      "eus": 5299,
      "eal": 5300,
      "eor": 5301,
      "eas": 5302,
      "eim": 5303,
      "eem": 5304,
      "eous": 5305,
      "eph": 5306,
      "eks": 5307,
      "eper": 5308,
      "ege": 5309,
      "eign": 5310,
      "eira": 5311,
      "eason": 5312,
      "eases": 5313,
      "eaux": 5314,
      "fb": 5315,
      "fi": 5316,
      "fs": 5317,
      "fy": 5318,
      "fin": 5319,
      "fan": 5320,
      "far": 5321,
      "fus": 5322,
      "fle": 5323,
      "fam": 5324,
      "fly": 5325,
      "fore": 5326,
      "found": 5327,
      "fold": 5328,
      "fix": 5329,
      "fying": 5330,
      "fried": 5331,
      "frey": 5332,
      "furt": 5333,
      "folk": 5334,
      "gc": 5335,
      "gh": 5336,
      "gm": 5337,
      "gs": 5338,
      "gt": 5339,
      "git": 5340,
      "gel": 5341,
      "gent": 5342,
      "gil": 5343,
      "gia": 5344,
      "gies": 5345,
      "gill": 5346,
      "ght": 5347,
      "gical": 5348,
      "gang": 5349,
      "gled": 5350,
      "gee": 5351,
      "gman": 5352,
      "gling": 5353,
      "grow": 5354,
      "gue": 5355,
      "gement": 5356,
      "gae": 5357,
      "gara": 5358,
      "ginal": 5359,
      "giving": 5360,
      "hy": 5361,
      "hin": 5362,
      "hat": 5363,
      "hing": 5364,
      "hun": 5365,
      "hra": 5366,
      "het": 5367,
      "him": 5368,
      "hist": 5369,
      "how": 5370,
      "hop": 5371,
      "hous": 5372,
      "hill": 5373,
      "hav": 5374,
      "hang": 5375,
      "hall": 5376,
      "hman": 5377,
      "hone": 5378,
      "hai": 5379,
      "hism": 5380,
      "hma": 5381,
      "hetic": 5382,
      "hya": 5383,
      "haled": 5384,
      "hears": 5385,
      "hanna": 5386,
      "horse": 5387,
      "human": 5388,
      "iad": 5389,
      "iop": 5390,
      "iations": 5391,
      "iley": 5392,
      "ieter": 5393,
      "iological": 5394,
      "iams": 5395,
      "iography": 5396,
      "ienced": 5397,
      "je": 5398,
      "js": 5399,
      "jin": 5400,
      "jing": 5401,
      "jam": 5402,
      "jay": 5403,
      "jian": 5404,
      "jord": 5405,
      "jee": 5406,
      "jev": 5407,
      "jana": 5408,
      "kh": 5409,
      "kon": 5410,
      "kan": 5411,
      "kat": 5412,
      "kar": 5413,
      "kit": 5414,
      "kel": 5415,
      "kas": 5416,
      "kers": 5417,
      "kow": 5418,
      "kans": 5419,
      "kward": 5420,
      "keeping": 5421,
      "lb": 5422,
      "las": 5423,
      "lag": 5424,
      "lia": 5425,
      "lian": 5426,
      "lie": 5427,
      "lip": 5428,
      "lain": 5429,
      "lance": 5430,
      "lah": 5431,
      "lley": 5432,
      "lash": 5433,
      "lore": 5434,
      "lied": 5435,
      "lich": 5436,
      "lane": 5437,
      "lace": 5438,
      "lift": 5439,
      "liest": 5440,
      "mg": 5441,
      "mun": 5442,
      "mic": 5443,
      "mel": 5444,
      "mas": 5445,
      "mid": 5446,
      "mist": 5447,
      "mir": 5448,
      "mie": 5449,
      "main": 5450,
      "mour": 5451,
      "mary": 5452,
      "mah": 5453,
      "mail": 5454,
      "mare": 5455,
      "mson": 5456,
      "mma": 5457,
      "matic": 5458,
      "mble": 5459,
      "ni": 5460,
      "nar": 5461,
      "nem": 5462,
      "nia": 5463,
      "nate": 5464,
      "nian": 5465,
      "nard": 5466,
      "nell": 5467,
      "nage": 5468,
      "norm": 5469,
      "nik": 5470,
      "nered": 5471,
      "nius": 5472,
      "note": 5473,
      "notic": 5474,
      "oh": 5475,
      "oz": 5476,
      "oin": 5477,
      "oes": 5478,
      "oit": 5479,
      "oil": 5480,
      "oot": 5481,
      "opp": 5482,
      "ouc": 5483,
      "oire": 5484,
      "opped": 5485,
      "oza": 5486,
      "ointed": 5487,
      "oirs": 5488,
      "ointing": 5489,
      "pa": 5490,
      "pg": 5491,
      "pon": 5492,
      "pen": 5493,
      "pus": 5494,
      "pal": 5495,
      "pel": 5496,
      "pie": 5497,
      "part": 5498,
      "pine": 5499,
      "pack": 5500,
      "post": 5501,
      "pired": 5502,
      "puts": 5503,
      "piring": 5504,
      "position": 5505,
      "parts": 5506,
      "piece": 5507,
      "qi": 5508,
      "rt": 5509,
      "rz": 5510,
      "rin": 5511,
      "rat": 5512,
      "rar": 5513,
      "ril": 5514,
      "rand": 5515,
      "rst": 5516,
      "rell": 5517,
      "rug": 5518,
      "rine": 5519,
      "rust": 5520,
      "rence": 5521,
      "rise": 5522,
      "rite": 5523,
      "rative": 5524,
      "rator": 5525,
      "rase": 5526,
      "rants": 5527,
      "rna": 5528,
      "rison": 5529,
      "rily": 5530,
      "rators": 5531,
      "rano": 5532,
      "rella": 5533,
      "rera": 5534,
      "si": 5535,
      "sr": 5536,
      "ser": 5537,
      "sis": 5538,
      "sum": 5539,
      "sie": 5540,
      "sons": 5541,
      "sling": 5542,
      "some": 5543,
      "sby": 5544,
      "sler": 5545,
      "sco": 5546,
      "sche": 5547,
      "sden": 5548,
      "sbury": 5549,
      "smith": 5550,
      "tal": 5551,
      "tec": 5552,
      "tch": 5553,
      "tri": 5554,
      "tly": 5555,
      "tag": 5556,
      "tate": 5557,
      "top": 5558,
      "tical": 5559,
      "tage": 5560,
      "tee": 5561,
      "tric": 5562,
      "tory": 5563,
      "turn": 5564,
      "tures": 5565,
      "tou": 5566,
      "tropical": 5567,
      "uz": 5568,
      "uen": 5569,
      "uum": 5570,
      "uating": 5571,
      "uve": 5572,
      "uously": 5573,
      "vd": 5574,
      "vi": 5575,
      "vy": 5576,
      "von": 5577,
      "var": 5578,
      "vor": 5579,
      "vas": 5580,
      "vet": 5581,
      "vre": 5582,
      "vard": 5583,
      "vie": 5584,
      "vity": 5585,
      "vine": 5586,
      "vial": 5587,
      "vings": 5588,
      "vious": 5589,
      "vement": 5590,
      "vana": 5591,
      "vania": 5592,
      "wl": 5593,
      "wn": 5594,
      "wen": 5595,
      "wil": 5596,
      "wall": 5597,
      "wled": 5598,
      "wear": 5599,
      "wings": 5600,
      "with": 5601,
      "wana": 5602,
      "wyn": 5603,
      "wald": 5604,
      "witz": 5605,
      "words": 5606,
      "while": 5607,
      "xes": 5608,
      "xide": 5609,
      "yo": 5610,
      "yt": 5611,
      "yed": 5612,
      "yon": 5613,
      "yen": 5614,
      "yers": 5615,
      "yder": 5616,
      "yte": 5617,
      "yana": 5618,
      "yla": 5619,
      "zer": 5620,
      "zon": 5621,
      "zes": 5622,
      "zan": 5623,
      "zation": 5624,
      "zig": 5625,
      "zard": 5626,
      "zman": 5627,
      "zio": 5628,
      "zone": 5629,
      "zier": 5630,
      "zuki": 5631,
      "zhou": 5632,
      "zbek": 5633,
      "¡Į": 5634,
      "¡Ĺ": 5635,
      "¢¨": 5636,
      "£«": 5637,
      "£®": 5638,
      "£Ł": 5639,
      "¤º": 5640,
      "¤¾": 5641,
      "¥³": 5642,
      "¥¿": 5643,
      "¥Ī": 5644,
      "¥Ĭ": 5645,
      "¥ŀ": 5646,
      "¦¬": 5647,
      "¦¾": 5648,
      "¦ĭ": 5649,
      "¦ı": 5650,
      "¦Ļ": 5651,
      "§ĩ": 5652,
      "§ĭ": 5653,
      "¨¹": 5654,
      "¨ģ": 5655,
      "©º": 5656,
      "©ĭ": 5657,
      "ªŀ": 5658,
      "«ĺ": 5659,
      "¯º": 5660,
      "¯Ķ": 5661,
      "°·": 5662,
      "±±": 5663,
      "±¼": 5664,
      "±Ł": 5665,
      "²¡": 5666,
      "²´": 5667,
      "²Ŀ": 5668,
      "³¶": 5669,
      "³¹": 5670,
      "³ķ": 5671,
      "´İ": 5672,
      "µ·": 5673,
      "¶ľ": 5674,
      "¶ł": 5675,
      "·Ģ": 5676,
      "·ı": 5677,
      "¸ħ": 5678,
      "¸Ŀ": 5679,
      "¹Ģ": 5680,
      "º©": 5681,
      "º¼": 5682,
      "»Ĭ": 5683,
      "»į": 5684,
      "¼¢": 5685,
      "¼µ": 5686,
      "¼Ĭ": 5687,
      "¼ĭ": 5688,
      "¼į": 5689,
      "¼ĺ": 5690,
      "¼ļ": 5691,
      "½¥": 5692,
      "½³": 5693,
      "½Ĳ": 5694,
      "½ŀ": 5695,
      "¾©": 5696,
      "¾¶": 5697,
      "¾¸": 5698,
      "¾İ": 5699,
      "¿¡": 5700,
      "¿Ŀ": 5701,
      "Â³": 5702,
      "Ã¸": 5703,
      "Åĭ": 5704,
      "Åĵ": 5705,
      "ÆĴ": 5706,
      "Ê»": 5707,
      "Î±": 5708,
      "Î·": 5709,
      "Î¹": 5710,
      "Ïħ": 5711,
      "Ðµ": 5712,
      "Ðº": 5713,
      "Ñı": 5714,
      "Óı": 5715,
      "Ø¨": 5716,
      "Ø¯": 5717,
      "ÙĨ": 5718,
      "à²": 5719,
      "âĦ": 5720,
      "âħ": 5721,
      "åĮ": 5722,
      "åľ": 5723,
      "åł": 5724,
      "åŃ": 5725,
      "æī": 5726,
      "çļ": 5727,
      "èī": 5728,
      "éĩ": 5729,
      "éķ": 5730,
      "éĸ": 5731,
      "éĺ": 5732,
      "éĿ": 5733,
      "ï½ŀ": 5734,
      "Ġion": 5735,
      "Ġul": 5736,
      "Ġard": 5737,
      "Ġie": 5738,
      "Ġug": 5739,
      "Ġub": 5740,
      "Ġons": 5741,
      "Ġits": 5742,
      "Ġ90": 5743,
      "Ġ75": 5744,
      "Ġuss": 5745,
      "Ġont": 5746,
      "Ġuse": 5747,
      "Ġones": 5748,
      "Ġother": 5749,
      "ĠÅĤ": 5750,
      "Ġï¬": 5751,
      "Ģ¬": 5752,
      "Ģ³": 5753,
      "ĢĻ": 5754,
      "ģ¥": 5755,
      "ģ«": 5756,
      "ģĵ": 5757,
      "ĦĽ": 5758,
      "Ĩħ": 5759,
      "ĩº": 5760,
      "ĩĦ": 5761,
      "ĩĴ": 5762,
      "Ī´": 5763,
      "ĪĨ": 5764,
      "īį": 5765,
      "Ĭ¬": 5766,
      "Ĭ±": 5767,
      "ĭ±": 5768,
      "ĭħ": 5769,
      "ĭĿ": 5770,
      "İĭ": 5771,
      "İŁ": 5772,
      "ı¯": 5773,
      "ĳī": 5774,
      "ĴĮ": 5775,
      "Ķ¿": 5776,
      "ĶĢ": 5777,
      "ĶĤ": 5778,
      "ĸª": 5779,
      "ĸĴ": 5780,
      "ĸł": 5781,
      "Ĺ¤": 5782,
      "Ĺ¥": 5783,
      "Ĺı": 5784,
      "Ļ³": 5785,
      "Ľ®": 5786,
      "Ľ²": 5787,
      "ĽĦ": 5788,
      "ľģ": 5789,
      "ĿĤ": 5790,
      "ŀĹ": 5791,
      "Ł¨": 5792,
      "Ł©": 5793,
      "Ł³": 5794,
      "Łİ": 5795,
      "Ġ##Ã": 5796,
      "Ġ##à¤": 5797,
      "Ġ##à®": 5798,
      "iners": 5799,
      "inia": 5800,
      "inian": 5801,
      "inage": 5802,
      "inite": 5803,
      "inator": 5804,
      "inction": 5805,
      "inished": 5806,
      "inery": 5807,
      "inning": 5808,
      "initely": 5809,
      "eda": 5810,
      "ede": 5811,
      "edo": 5812,
      "edonia": 5813,
      "edonian": 5814,
      "eras": 5815,
      "erre": 5816,
      "erpt": 5817,
      "erick": 5818,
      "erable": 5819,
      "eroy": 5820,
      "erals": 5821,
      "ermo": 5822,
      "erbai": 5823,
      "oner": 5824,
      "oning": 5825,
      "once": 5826,
      "oney": 5827,
      "onaut": 5828,
      "Ġsq": 5829,
      "Ġsit": 5830,
      "Ġsul": 5831,
      "Ġsut": 5832,
      "Ġsid": 5833,
      "Ġsous": 5834,
      "Ġsain": 5835,
      "Ġsib": 5836,
      "Ġsans": 5837,
      "Ġsey": 5838,
      "Ġsov": 5839,
      "Ġsight": 5840,
      "Ġsick": 5841,
      "Ġsoy": 5842,
      "Ġsult": 5843,
      "Ġsover": 5844,
      "Ġsung": 5845,
      "Ġsara": 5846,
      "Ġsque": 5847,
      "Ġsony": 5848,
      "Ġsiber": 5849,
      "Ġsulf": 5850,
      "esar": 5851,
      "esian": 5852,
      "anim": 5853,
      "anie": 5854,
      "anov": 5855,
      "anium": 5856,
      "Ġci": 5857,
      "Ġcm": 5858,
      "Ġced": 5859,
      "Ġcis": 5860,
      "Ġcec": 5861,
      "Ġcot": 5862,
      "Ġcem": 5863,
      "Ġcous": 5864,
      "Ġcort": 5865,
      "Ġcens": 5866,
      "Ġcord": 5867,
      "Ġcai": 5868,
      "Ġcale": 5869,
      "Ġcush": 5870,
      "Ġcrad": 5871,
      "Ġcott": 5872,
      "Ġcyn": 5873,
      "Ġcame": 5874,
      "Ġcyl": 5875,
      "Ġcuff": 5876,
      "Ġcere": 5877,
      "Ġcogn": 5878,
      "Ġcateg": 5879,
      "Ġcunning": 5880,
      "enh": 5881,
      "eno": 5882,
      "enas": 5883,
      "enom": 5884,
      "eney": 5885,
      "enings": 5886,
      "enue": 5887,
      "enne": 5888,
      "enues": 5889,
      "enberg": 5890,
      "enzo": 5891,
      "enzie": 5892,
      "atus": 5893,
      "atis": 5894,
      "atur": 5895,
      "atum": 5896,
      "atile": 5897,
      "atics": 5898,
      "atically": 5899,
      "attered": 5900,
      "attering": 5901,
      "ativity": 5902,
      "aran": 5903,
      "arre": 5904,
      "arse": 5905,
      "arium": 5906,
      "usk": 5907,
      "usts": 5908,
      "uscript": 5909,
      "inge": 5910,
      "inged": 5911,
      "ingen": 5912,
      "unce": 5913,
      "unct": 5914,
      "unate": 5915,
      "unity": 5916,
      "unks": 5917,
      "unted": 5918,
      "unting": 5919,
      "unction": 5920,
      "unately": 5921,
      "unciation": 5922,
      "alo": 5923,
      "alon": 5924,
      "alid": 5925,
      "alie": 5926,
      "alous": 5927,
      "algam": 5928,
      "Ġpt": 5929,
      "Ġpom": 5930,
      "Ġpac": 5931,
      "Ġpir": 5932,
      "Ġpand": 5933,
      "Ġpia": 5934,
      "Ġpian": 5935,
      "Ġpud": 5936,
      "Ġpour": 5937,
      "Ġpage": 5938,
      "Ġpaw": 5939,
      "Ġpock": 5940,
      "Ġpiss": 5941,
      "Ġpue": 5942,
      "Ġpair": 5943,
      "Ġpix": 5944,
      "Ġpse": 5945,
      "Ġpeter": 5946,
      "Ġpump": 5947,
      "Ġpony": 5948,
      "Ġpots": 5949,
      "Ġpull": 5950,
      "Ġpaint": 5951,
      "Ġponder": 5952,
      "Ġpige": 5953,
      "orial": 5954,
      "orage": 5955,
      "orio": 5956,
      "orities": 5957,
      "oresc": 5958,
      "Ġrut": 5959,
      "Ġrect": 5960,
      "Ġrif": 5961,
      "Ġrog": 5962,
      "Ġroc": 5963,
      "Ġrip": 5964,
      "Ġrug": 5965,
      "Ġrall": 5966,
      "Ġrely": 5967,
      "Ġrating": 5968,
      "Ġrash": 5969,
      "Ġrapp": 5970,
      "Ġripp": 5971,
      "Ġrose": 5972,
      "Ġroth": 5973,
      "Ġross": 5974,
      "Ġrome": 5975,
      "Ġrena": 5976,
      "Ġrivers": 5977,
      "Ġriver": 5978,
      "Ġrode": 5979,
      "Ġrival": 5980,
      "Ġruth": 5981,
      "Ġranch": 5982,
      "Ġbj": 5983,
      "Ġbw": 5984,
      "Ġbin": 5985,
      "Ġbent": 5986,
      "Ġbil": 5987,
      "Ġbam": 5988,
      "Ġbid": 5989,
      "Ġbest": 5990,
      "Ġbog": 5991,
      "Ġbak": 5992,
      "Ġbav": 5993,
      "Ġbib": 5994,
      "Ġbure": 5995,
      "Ġbee": 5996,
      "Ġbanc": 5997,
      "Ġbach": 5998,
      "Ġbout": 5999,
      "Ġbio": 6000,
      "Ġbai": 6001,
      "Ġbets": 6002,
      "Ġbase": 6003,
      "Ġbened": 6004,
      "Ġboss": 6005,
      "Ġbats": 6006,
      "Ġbald": 6007,
      "Ġbored": 6008,
      "Ġbyp": 6009,
      "Ġbeck": 6010,
      "Ġbeds": 6011,
      "Ġbridge": 6012,
      "Ġbicy": 6013,
      "Ġmp": 6014,
      "Ġmv": 6015,
      "Ġming": 6016,
      "Ġmit": 6017,
      "Ġmol": 6018,
      "Ġmim": 6019,
      "Ġmum": 6020,
      "Ġmab": 6021,
      "Ġmant": 6022,
      "Ġmate": 6023,
      "Ġmud": 6024,
      "Ġmap": 6025,
      "Ġmund": 6026,
      "Ġmight": 6027,
      "Ġmick": 6028,
      "Ġmore": 6029,
      "Ġmcl": 6030,
      "Ġmost": 6031,
      "Ġmaz": 6032,
      "Ġmex": 6033,
      "Ġmush": 6034,
      "Ġmade": 6035,
      "Ġmorn": 6036,
      "Ġmake": 6037,
      "Ġmitch": 6038,
      "Ġmasc": 6039,
      "Ġmisc": 6040,
      "Ġdh": 6041,
      "Ġded": 6042,
      "Ġdil": 6043,
      "Ġdid": 6044,
      "Ġdad": 6045,
      "Ġdum": 6046,
      "Ġdia": 6047,
      "Ġdies": 6048,
      "Ġdie": 6049,
      "Ġdry": 6050,
      "Ġdanc": 6051,
      "Ġdign": 6052,
      "Ġdock": 6053,
      "Ġdail": 6054,
      "Ġdash": 6055,
      "Ġdone": 6056,
      "Ġdix": 6057,
      "Ġduck": 6058,
      "Ġdrop": 6059,
      "Ġdmit": 6060,
      "Ġduff": 6061,
      "Ġdarr": 6062,
      "Ġdolph": 6063,
      "Ġdread": 6064,
      "isi": 6065,
      "isk": 6066,
      "isle": 6067,
      "isans": 6068,
      "isons": 6069,
      "isition": 6070,
      "icts": 6071,
      "icting": 6072,
      "icious": 6073,
      "Ġted": 6074,
      "Ġtul": 6075,
      "Ġtum": 6076,
      "Ġtay": 6077,
      "Ġtian": 6078,
      "Ġtog": 6079,
      "Ġtak": 6080,
      "Ġtug": 6081,
      "Ġtib": 6082,
      "Ġtast": 6083,
      "Ġtap": 6084,
      "Ġtok": 6085,
      "Ġtoy": 6086,
      "Ġtiss": 6087,
      "Ġtier": 6088,
      "Ġtank": 6089,
      "Ġtae": 6090,
      "Ġtomb": 6091,
      "Ġtender": 6092,
      "Ġtribut": 6093,
      "itis": 6094,
      "itro": 6095,
      "itations": 6096,
      "itating": 6097,
      "iture": 6098,
      "ither": 6099,
      "itals": 6100,
      "itious": 6101,
      "itched": 6102,
      "itty": 6103,
      "itches": 6104,
      "itational": 6105,
      "ionist": 6106,
      "ionate": 6107,
      "elis": 6108,
      "elia": 6109,
      "elong": 6110,
      "elength": 6111,
      "Ġfis": 6112,
      "Ġfit": 6113,
      "Ġfet": 6114,
      "Ġfay": 6115,
      "Ġfell": 6116,
      "Ġfang": 6117,
      "Ġfors": 6118,
      "Ġford": 6119,
      "Ġfru": 6120,
      "Ġfood": 6121,
      "Ġfron": 6122,
      "Ġfind": 6123,
      "Ġfals": 6124,
      "Ġfert": 6125,
      "Ġfai": 6126,
      "Ġface": 6127,
      "Ġfict": 6128,
      "Ġfare": 6129,
      "Ġfrig": 6130,
      "Ġfrid": 6131,
      "Ġfoss": 6132,
      "Ġfull": 6133,
      "Ġfount": 6134,
      "Ġfaint": 6135,
      "Ġfuel": 6136,
      "Ġfiance": 6137,
      "Ġfinger": 6138,
      "Ġfirm": 6139,
      "Ġfrog": 6140,
      "Ġaj": 6141,
      "Ġaar": 6142,
      "Ġaest": 6143,
      "Ġaub": 6144,
      "Ġaux": 6145,
      "lev": 6146,
      "lein": 6147,
      "leen": 6148,
      "leod": 6149,
      "lete": 6150,
      "leading": 6151,
      "uri": 6152,
      "uru": 6153,
      "uries": 6154,
      "urated": 6155,
      "urable": 6156,
      "urai": 6157,
      "urities": 6158,
      "urement": 6159,
      "urring": 6160,
      "urbed": 6161,
      "Ġhi": 6162,
      "Ġhan": 6163,
      "Ġhis": 6164,
      "Ġhit": 6165,
      "Ġhers": 6166,
      "Ġhid": 6167,
      "Ġhig": 6168,
      "Ġhess": 6169,
      "Ġhect": 6170,
      "Ġhort": 6171,
      "Ġhund": 6172,
      "Ġhour": 6173,
      "Ġhorm": 6174,
      "Ġhood": 6175,
      "Ġhier": 6176,
      "Ġhair": 6177,
      "Ġhai": 6178,
      "Ġhugh": 6179,
      "Ġhond": 6180,
      "Ġhamp": 6181,
      "Ġhym": 6182,
      "Ġhome": 6183,
      "Ġhitch": 6184,
      "Ġhtt": 6185,
      "Ġhunt": 6186,
      "Ġhorse": 6187,
      "Ġhiro": 6188,
      "Ġhimal": 6189,
      "Ġhyster": 6190,
      "Ġges": 6191,
      "Ġget": 6192,
      "Ġgul": 6193,
      "Ġgut": 6194,
      "Ġgos": 6195,
      "Ġgate": 6196,
      "Ġgif": 6197,
      "Ġgain": 6198,
      "Ġgast": 6199,
      "Ġgov": 6200,
      "Ġgru": 6201,
      "Ġgear": 6202,
      "Ġgott": 6203,
      "Ġgame": 6204,
      "Ġgaul": 6205,
      "Ġgarr": 6206,
      "Ġgather": 6207,
      "Ġginger": 6208,
      "Ġgael": 6209,
      "Ġgamb": 6210,
      "Ġgilles": 6211,
      "asi": 6212,
      "asp": 6213,
      "aser": 6214,
      "asions": 6215,
      "asper": 6216,
      "aska": 6217,
      "asaki": 6218,
      "ente": 6219,
      "entin": 6220,
      "enter": 6221,
      "enting": 6222,
      "entation": 6223,
      "entially": 6224,
      "iliated": 6225,
      "road": 6226,
      "rove": 6227,
      "rough": 6228,
      "roft": 6229,
      "roads": 6230,
      "Ġlt": 6231,
      "Ġled": 6232,
      "Ġlen": 6233,
      "Ġlis": 6234,
      "Ġlion": 6235,
      "Ġlur": 6236,
      "Ġlil": 6237,
      "Ġlia": 6238,
      "Ġlip": 6239,
      "Ġlast": 6240,
      "Ġlord": 6241,
      "Ġlok": 6242,
      "Ġlack": 6243,
      "Ġlanc": 6244,
      "Ġlair": 6245,
      "Ġlank": 6246,
      "Ġlaz": 6247,
      "Ġlenn": 6248,
      "Ġlark": 6249,
      "Ġlung": 6250,
      "Ġlinc": 6251,
      "Ġloss": 6252,
      "Ġlump": 6253,
      "Ġlars": 6254,
      "Ġlomb": 6255,
      "Ġlakes": 6256,
      "Ġliver": 6257,
      "Ġlinds": 6258,
      "Ġlamb": 6259,
      "Ġluther": 6260,
      "olo": 6261,
      "oly": 6262,
      "olin": 6263,
      "olas": 6264,
      "olio": 6265,
      "olism": 6266,
      "olished": 6267,
      "olitan": 6268,
      "rac": 6269,
      "rament": 6270,
      "raged": 6271,
      "raÃŁe": 6272,
      "ete": 6273,
      "eto": 6274,
      "eton": 6275,
      "etan": 6276,
      "etical": 6277,
      "etically": 6278,
      "etime": 6279,
      "Ġwc": 6280,
      "Ġwy": 6281,
      "Ġwent": 6282,
      "Ġwro": 6283,
      "Ġwre": 6284,
      "Ġwag": 6285,
      "Ġway": 6286,
      "Ġwend": 6287,
      "Ġwiz": 6288,
      "Ġwast": 6289,
      "Ġwors": 6290,
      "Ġwry": 6291,
      "Ġwick": 6292,
      "Ġwee": 6293,
      "Ġworm": 6294,
      "Ġwins": 6295,
      "Ġwings": 6296,
      "Ġwound": 6297,
      "Ġwake": 6298,
      "Ġwald": 6299,
      "Ġwitch": 6300,
      "Ġwink": 6301,
      "Ġwinds": 6302,
      "Ġwien": 6303,
      "Ġwrong": 6304,
      "Ġwander": 6305,
      "omi": 6306,
      "omo": 6307,
      "omy": 6308,
      "omic": 6309,
      "omot": 6310,
      "ometer": 6311,
      "eca": 6312,
      "eco": 6313,
      "ecca": 6314,
      "Ġ11": 6315,
      "Ġ12": 6316,
      "Ġ14": 6317,
      "Ġ100": 6318,
      "Ġny": 6319,
      "Ġned": 6320,
      "Ġnan": 6321,
      "Ġnec": 6322,
      "Ġnum": 6323,
      "Ġnak": 6324,
      "Ġnell": 6325,
      "Ġnort": 6326,
      "Ġnass": 6327,
      "Ġnord": 6328,
      "Ġnash": 6329,
      "Ġnue": 6330,
      "Ġnoun": 6331,
      "Ġnost": 6332,
      "Ġnix": 6333,
      "Ġnoth": 6334,
      "Ġnumb": 6335,
      "Ġnou": 6336,
      "Ġneck": 6337,
      "Ġnils": 6338,
      "Ġnames": 6339,
      "Ġnathan": 6340,
      "chu": 6341,
      "chan": 6342,
      "chers": 6343,
      "chment": 6344,
      "chair": 6345,
      "chief": 6346,
      "change": 6347,
      "church": 6348,
      "rea": 6349,
      "Ġinac": 6350,
      "Ġinev": 6351,
      "Ġinex": 6352,
      "Ġinward": 6353,
      "Ġein": 6354,
      "Ġeag": 6355,
      "Ġeug": 6356,
      "Ġeuc": 6357,
      "Ġeps": 6358,
      "Ġegg": 6359,
      "Ġeager": 6360,
      "ersion": 6361,
      "ersey": 6362,
      "amation": 6363,
      "amber": 6364,
      "amics": 6365,
      "rio": 6366,
      "riet": 6367,
      "riers": 6368,
      "riam": 6369,
      "rive": 6370,
      "riev": 6371,
      "riages": 6372,
      "rika": 6373,
      "lywood": 6374,
      "uled": 6375,
      "ulus": 6376,
      "ulative": 6377,
      "ulator": 6378,
      "ulders": 6379,
      "uto": 6380,
      "uter": 6381,
      "uting": 6382,
      "utation": 6383,
      "aco": 6384,
      "acles": 6385,
      "acting": 6386,
      "acio": 6387,
      "acious": 6388,
      "acular": 6389,
      "acional": 6390,
      "idi": 6391,
      "idy": 6392,
      "iden": 6393,
      "idian": 6394,
      "idently": 6395,
      "Ġsta": 6396,
      "Ġstu": 6397,
      "Ġster": 6398,
      "Ġstun": 6399,
      "Ġstom": 6400,
      "Ġstill": 6401,
      "Ġstain": 6402,
      "Ġstub": 6403,
      "Ġstup": 6404,
      "Ġstates": 6405,
      "Ġstake": 6406,
      "Ġstyl": 6407,
      "Ġstere": 6408,
      "Ġstrict": 6409,
      "Ġstagg": 6410,
      "Ġrear": 6411,
      "Ġreper": 6412,
      "Ġreiss": 6413,
      "Ġremin": 6414,
      "Ġreward": 6415,
      "Ġrevers": 6416,
      "Ġreef": 6417,
      "Ġrehab": 6418,
      "Ġreported": 6419,
      "Ġrejo": 6420,
      "Ġrehears": 6421,
      "iga": 6422,
      "igan": 6423,
      "igible": 6424,
      "iguous": 6425,
      "Ġvin": 6426,
      "Ġvel": 6427,
      "Ġvom": 6428,
      "Ġvot": 6429,
      "Ġvess": 6430,
      "Ġvend": 6431,
      "Ġvast": 6432,
      "Ġvary": 6433,
      "Ġvick": 6434,
      "Ġvide": 6435,
      "Ġvern": 6436,
      "Ġvaugh": 6437,
      "Ġvlad": 6438,
      "Ġvigor": 6439,
      "Ġvenez": 6440,
      "otte": 6441,
      "iven": 6442,
      "ivia": 6443,
      "ivian": 6444,
      "ivals": 6445,
      "ivered": 6446,
      "iveness": 6447,
      "osa": 6448,
      "osal": 6449,
      "osity": 6450,
      "oslov": 6451,
      "osyst": 6452,
      "adi": 6453,
      "ady": 6454,
      "adic": 6455,
      "adel": 6456,
      "ados": 6457,
      "adia": 6458,
      "advant": 6459,
      "imo": 6460,
      "iming": 6461,
      "imir": 6462,
      "imum": 6463,
      "imeter": 6464,
      "imney": 6465,
      "imately": 6466,
      "imented": 6467,
      "Ġconfer": 6468,
      "Ġconvert": 6469,
      "iste": 6470,
      "isters": 6471,
      "istical": 6472,
      "tera": 6473,
      "terns": 6474,
      "irled": 6475,
      "irts": 6476,
      "ema": 6477,
      "emia": 6478,
      "emption": 6479,
      "empor": 6480,
      "emberg": 6481,
      "employ": 6482,
      "uma": 6483,
      "umi": 6484,
      "umed": 6485,
      "umes": 6486,
      "umen": 6487,
      "umar": 6488,
      "umst": 6489,
      "umph": 6490,
      "umann": 6491,
      "umps": 6492,
      "umatic": 6493,
      "andro": 6494,
      "andez": 6495,
      "Ġog": 6496,
      "Ġoh": 6497,
      "Ġoch": 6498,
      "Ġoption": 6499,
      "Ġours": 6500,
      "essive": 6501,
      "agues": 6502,
      "Ġji": 6503,
      "Ġjed": 6504,
      "Ġjar": 6505,
      "Ġjing": 6506,
      "Ġjos": 6507,
      "Ġjay": 6508,
      "Ġjog": 6509,
      "Ġjak": 6510,
      "Ġjap": 6511,
      "Ġjens": 6512,
      "Ġjord": 6513,
      "Ġjob": 6514,
      "Ġjaw": 6515,
      "Ġjock": 6516,
      "Ġjane": 6517,
      "Ġjung": 6518,
      "Ġjacks": 6519,
      "Ġjama": 6520,
      "Ġjames": 6521,
      "Ġjiang": 6522,
      "Ġjosh": 6523,
      "Ġjagu": 6524,
      "Ġjersey": 6525,
      "este": 6526,
      "estic": 6527,
      "estry": 6528,
      "estone": 6529,
      "estyle": 6530,
      "aby": 6531,
      "abet": 6532,
      "abled": 6533,
      "abeth": 6534,
      "ablo": 6535,
      "abilities": 6536,
      "cey": 6537,
      "Ġka": 6538,
      "Ġki": 6539,
      "Ġkm": 6540,
      "Ġku": 6541,
      "Ġkan": 6542,
      "Ġkun": 6543,
      "Ġkel": 6544,
      "Ġkent": 6545,
      "Ġkell": 6546,
      "Ġkang": 6547,
      "Ġkings": 6548,
      "Ġkern": 6549,
      "Ġkenn": 6550,
      "Ġkeen": 6551,
      "Ġkoch": 6552,
      "Ġkurd": 6553,
      "Ġchi": 6554,
      "Ġchin": 6555,
      "Ġcher": 6556,
      "Ġchal": 6557,
      "Ġchel": 6558,
      "Ġchest": 6559,
      "Ġchann": 6560,
      "Ġchatt": 6561,
      "Ġchanc": 6562,
      "Ġchile": 6563,
      "Ġchef": 6564,
      "Ġcheck": 6565,
      "Ġcheek": 6566,
      "Ġchrom": 6567,
      "Ġchester": 6568,
      "Ġchamber": 6569,
      "Ġchimney": 6570,
      "owa": 6571,
      "oway": 6572,
      "anta": 6573,
      "ante": 6574,
      "anton": 6575,
      "antes": 6576,
      "antry": 6577,
      "antage": 6578,
      "sty": 6579,
      "stic": 6580,
      "sters": 6581,
      "station": 6582,
      "stick": 6583,
      "stock": 6584,
      "stems": 6585,
      "stairs": 6586,
      "stadt": 6587,
      "stroke": 6588,
      "quin": 6589,
      "quer": 6590,
      "quar": 6591,
      "quel": 6592,
      "quette": 6593,
      "ayton": 6594,
      "pps": 6595,
      "ppet": 6596,
      "ppled": 6597,
      "odox": 6598,
      "Ġshen": 6599,
      "Ġshot": 6600,
      "Ġshang": 6601,
      "Ġshall": 6602,
      "Ġshakes": 6603,
      "Ġshrie": 6604,
      "Ġshift": 6605,
      "ctor": 6606,
      "ateau": 6607,
      "Ġproud": 6608,
      "ifa": 6609,
      "thed": 6610,
      "than": 6611,
      "thal": 6612,
      "thum": 6613,
      "thouse": 6614,
      "Ġcome": 6615,
      "Ġcomrad": 6616,
      "Ġexact": 6617,
      "Ġexcept": 6618,
      "Ġextern": 6619,
      "Ġexempl": 6620,
      "ardy": 6621,
      "ogy": 6622,
      "ocene": 6623,
      "ocaly": 6624,
      "pta": 6625,
      "ptive": 6626,
      "Ġspan": 6627,
      "Ġspat": 6628,
      "Ġspit": 6629,
      "Ġspre": 6630,
      "Ġspik": 6631,
      "Ġspear": 6632,
      "Ġspher": 6633,
      "Ġspont": 6634,
      "Ġspray": 6635,
      "Ġspaces": 6636,
      "Ġsports": 6637,
      "Ġspokes": 6638,
      "ieved": 6639,
      "ieving": 6640,
      "akia": 6641,
      "opa": 6642,
      "opus": 6643,
      "opers": 6644,
      "opher": 6645,
      "enda": 6646,
      "illo": 6647,
      "illon": 6648,
      "illery": 6649,
      "ello": 6650,
      "elles": 6651,
      "ellar": 6652,
      "ellation": 6653,
      "ellig": 6654,
      "Ġsuit": 6655,
      "Ġsugar": 6656,
      "Ġsupre": 6657,
      "Ġune": 6658,
      "Ġunw": 6659,
      "Ġunus": 6660,
      "Ġunic": 6661,
      "Ġunpr": 6662,
      "Ġunex": 6663,
      "Ġunde": 6664,
      "Ġunoff": 6665,
      "Ġunfort": 6666,
      "Ġundo": 6667,
      "Ġunsp": 6668,
      "Ġunanim": 6669,
      "Ġunemploy": 6670,
      "iph": 6671,
      "ainted": 6672,
      "Ġarth": 6673,
      "Ġarte": 6674,
      "Ġarbor": 6675,
      "Ġargy": 6676,
      "Ġarrog": 6677,
      "Ġarbit": 6678,
      "Ġarsen": 6679,
      "Ġaristoc": 6680,
      "Ġdew": 6681,
      "Ġdex": 6682,
      "Ġdeath": 6683,
      "Ġdeport": 6684,
      "Ġdeaf": 6685,
      "Ġdepress": 6686,
      "Ġdegre": 6687,
      "Ġdeuts": 6688,
      "Ġdegrad": 6689,
      "ortion": 6690,
      "Ġthy": 6691,
      "Ġthous": 6692,
      "Ġthigh": 6693,
      "Ġthink": 6694,
      "Ġthanks": 6695,
      "ava": 6696,
      "avi": 6697,
      "aving": 6698,
      "udi": 6699,
      "udence": 6700,
      "udged": 6701,
      "Ġalf": 6702,
      "Ġals": 6703,
      "Ġalph": 6704,
      "Ġalge": 6705,
      "Ġalber": 6706,
      "Ġalign": 6707,
      "Ġalong": 6708,
      "Ġalger": 6709,
      "Ġalgor": 6710,
      "Ġalumn": 6711,
      "Ġalfred": 6712,
      "Ġalumin": 6713,
      "Ġ21": 6714,
      "Ġ22": 6715,
      "Ġ23": 6716,
      "Ġ24": 6717,
      "Ġ25": 6718,
      "Ġ26": 6719,
      "Ġ28": 6720,
      "ffith": 6721,
      "ugoslav": 6722,
      "pher": 6723,
      "phine": 6724,
      "phob": 6725,
      "phere": 6726,
      "Ġclo": 6727,
      "Ġclock": 6728,
      "Ġclark": 6729,
      "plin": 6730,
      "pless": 6731,
      "plant": 6732,
      "plate": 6733,
      "plane": 6734,
      "planes": 6735,
      "iza": 6736,
      "izers": 6737,
      "izable": 6738,
      "izzy": 6739,
      "iba": 6740,
      "ibilities": 6741,
      "Ġcoy": 6742,
      "Ġcoal": 6743,
      "Ġcovent": 6744,
      "Ġcoven": 6745,
      "Ġcooper": 6746,
      "Ġcoeff": 6747,
      "arte": 6748,
      "inee": 6749,
      "mented": 6750,
      "asty": 6751,
      "astro": 6752,
      "astics": 6753,
      "astically": 6754,
      "apo": 6755,
      "apers": 6756,
      "ensed": 6757,
      "ensity": 6758,
      "ensions": 6759,
      "Ġlew": 6760,
      "Ġleop": 6761,
      "Ġlever": 6762,
      "Ġleft": 6763,
      "Ġlevel": 6764,
      "Ġleban": 6765,
      "Ġleaders": 6766,
      "isha": 6767,
      "ishments": 6768,
      "Ġadam": 6769,
      "Ġadher": 6770,
      "Ġadequ": 6771,
      "ansing": 6772,
      "kson": 6773,
      "kshire": 6774,
      "Ġdisord": 6775,
      "Ġdisney": 6776,
      "Ġdisgu": 6777,
      "Ġdisrupt": 6778,
      "Ġdischar": 6779,
      "Ġdisqual": 6780,
      "Ġdisadvant": 6781,
      "Ġâħ": 6782,
      "unda": 6783,
      "under": 6784,
      "undant": 6785,
      "Ġ1900": 6786,
      "Ġ1950": 6787,
      "Ġ1980": 6788,
      "Ġ1960": 6789,
      "Ġ1970": 6790,
      "Ġ1910": 6791,
      "Ġ1920": 6792,
      "Ġ1940": 6793,
      "Ġ1930": 6794,
      "Ġ1990": 6795,
      "Ġ1800": 6796,
      "Ġ1850": 6797,
      "Ġ1880": 6798,
      "Ġ1860": 6799,
      "Ġ1870": 6800,
      "Ġ1820": 6801,
      "Ġ1840": 6802,
      "Ġ1830": 6803,
      "Ġ1890": 6804,
      "ialized": 6805,
      "Ġscow": 6806,
      "Ġscout": 6807,
      "Ġscott": 6808,
      "Ġscroll": 6809,
      "Ġscoop": 6810,
      "Ġprest": 6811,
      "Ġprint": 6812,
      "Ġpruss": 6813,
      "uccess": 6814,
      "eyed": 6815,
      "Ġflin": 6816,
      "Ġflag": 6817,
      "assic": 6818,
      "assment": 6819,
      "ourage": 6820,
      "ryl": 6821,
      "ryn": 6822,
      "athi": 6823,
      "athers": 6824,
      "atham": 6825,
      "ovo": 6826,
      "ovsky": 6827,
      "Ġsev": 6828,
      "Ġsept": 6829,
      "Ġseiz": 6830,
      "Ġsegreg": 6831,
      "Ġseek": 6832,
      "Ġsebast": 6833,
      "oka": 6834,
      "Ġmarian": 6835,
      "Ġmarked": 6836,
      "Ġmarvel": 6837,
      "Ġmargar": 6838,
      "Ġmarcel": 6839,
      "Ġenz": 6840,
      "Ġenvel": 6841,
      "Ġenroll": 6842,
      "Ġenrich": 6843,
      "anners": 6844,
      "annah": 6845,
      "Ġblur": 6846,
      "Ġbless": 6847,
      "Ġblue": 6848,
      "Ġblond": 6849,
      "Ġbloss": 6850,
      "Ġblacks": 6851,
      "Ġaster": 6852,
      "uba": 6853,
      "ube": 6854,
      "usting": 6855,
      "ustion": 6856,
      "Ġtrick": 6857,
      "Ġtruth": 6858,
      "elyn": 6859,
      "Ġnever": 6860,
      "Ġyer": 6861,
      "Ġyun": 6862,
      "Ġyam": 6863,
      "Ġyoko": 6864,
      "Ġyugoslav": 6865,
      "Ġimmed": 6866,
      "Ġplun": 6867,
      "Ġplot": 6868,
      "Ġplum": 6869,
      "Ġplain": 6870,
      "Ġplaster": 6871,
      "Ġplural": 6872,
      "Ġplaint": 6873,
      "Ġresour": 6874,
      "Ġresult": 6875,
      "Ġresurr": 6876,
      "ureate": 6877,
      "Ġcompat": 6878,
      "Ġcompart": 6879,
      "Ġcomplement": 6880,
      "Ġcomprom": 6881,
      "oba": 6882,
      "obile": 6883,
      "Ġ##âĦ": 6884,
      "tone": 6885,
      "Ġ31": 6886,
      "Ġ32": 6887,
      "Ġ33": 6888,
      "Ġ34": 6889,
      "Ġ35": 6890,
      "Ġ36": 6891,
      "Ġ37": 6892,
      "Ġ38": 6893,
      "Ġ39": 6894,
      "ĠåĮ": 6895,
      "Ġåľ": 6896,
      "Ġåł": 6897,
      "ĠåŃ": 6898,
      "atta": 6899,
      "atty": 6900,
      "attle": 6901,
      "aware": 6902,
      "geons": 6903,
      "Ġelder": 6904,
      "Ġelse": 6905,
      "Ġeleg": 6906,
      "Ġelabor": 6907,
      "Ġeleph": 6908,
      "Ġcolour": 6909,
      "Ġcolomb": 6910,
      "Ġcolumn": 6911,
      "Ġbea": 6912,
      "Ġbeet": 6913,
      "Ġbeau": 6914,
      "Ġbegin": 6915,
      "Ġbefore": 6916,
      "Ġemil": 6917,
      "Ġemig": 6918,
      "Ġemot": 6919,
      "Ġemir": 6920,
      "Ġemper": 6921,
      "Ġemotion": 6922,
      "anca": 6923,
      "ancement": 6924,
      "Ġcontent": 6925,
      "Ġcontam": 6926,
      "Ġcontex": 6927,
      "Ġcontrad": 6928,
      "Ġcontroll": 6929,
      "Ġcontempl": 6930,
      "Ġcontempor": 6931,
      "berger": 6932,
      "Ġrecy": 6933,
      "Ġrecla": 6934,
      "Ġrecapt": 6935,
      "Ġreconst": 6936,
      "Ġamid": 6937,
      "Ġamate": 6938,
      "Ġamong": 6939,
      "Ġamalgam": 6940,
      "oya": 6941,
      "oyd": 6942,
      "mania": 6943,
      "ahl": 6944,
      "ahan": 6945,
      "rup": 6946,
      "Ġslab": 6947,
      "Ġslow": 6948,
      "Ġsloven": 6949,
      "issions": 6950,
      "issance": 6951,
      "tees": 6952,
      "achi": 6953,
      "achment": 6954,
      "tings": 6955,
      "tingham": 6956,
      "Ġquad": 6957,
      "Ġquiet": 6958,
      "onso": 6959,
      "Ġtram": 6960,
      "Ġtravers": 6961,
      "iki": 6962,
      "iko": 6963,
      "lings": 6964,
      "insky": 6965,
      "hered": 6966,
      "Ġorg": 6967,
      "Ġornam": 6968,
      "print": 6969,
      "prints": 6970,
      "Ġcarbon": 6971,
      "Ġswed": 6972,
      "Ġswans": 6973,
      "Ġswitch": 6974,
      "Ġswift": 6975,
      "Ġinterf": 6976,
      "Ġinterfer": 6977,
      "Ġintervent": 6978,
      "ricks": 6979,
      "ricted": 6980,
      "ricting": 6981,
      "shi": 6982,
      "shot": 6983,
      "shaw": 6984,
      "shore": 6985,
      "shev": 6986,
      "shima": 6987,
      "upe": 6988,
      "inders": 6989,
      "Ġbarg": 6990,
      "Ġbarns": 6991,
      "Ġhein": 6992,
      "Ġheal": 6993,
      "Ġheir": 6994,
      "Ġheight": 6995,
      "encia": 6996,
      "Ġphosph": 6997,
      "Ġphenom": 6998,
      "Ġboard": 6999,
      "Ġbooth": 7000,
      "Ġbohem": 7001,
      "Ġconson": 7002,
      "Ġconsec": 7003,
      "Ġconsid": 7004,
      "Ġconsort": 7005,
      "Ġconscious": 7006,
      "uez": 7007,
      "Ġbrat": 7008,
      "Ġbrent": 7009,
      "Ġbrill": 7010,
      "neo": 7011,
      "Ġapprent": 7012,
      "Ġaccus": 7013,
      "Ġaccred": 7014,
      "Ġaccla": 7015,
      "itioning": 7016,
      "itionally": 7017,
      "ulty": 7018,
      "ultural": 7019,
      "Ġparc": 7020,
      "Ġpark": 7021,
      "Ġparal": 7022,
      "Ġparis": 7023,
      "Ġparall": 7024,
      "Ġparano": 7025,
      "Ġparli": 7026,
      "Ġguad": 7027,
      "Ġguang": 7028,
      "Ġguine": 7029,
      "Ġguild": 7030,
      "Ġgujar": 7031,
      "Ġwhim": 7032,
      "Ġwhist": 7033,
      "Ġwhich": 7034,
      "Ġanarch": 7035,
      "psy": 7036,
      "Ġmonter": 7037,
      "Ġmonth": 7038,
      "Ġmonte": 7039,
      "Ġmonaster": 7040,
      "Ġmonitor": 7041,
      "Ġmonkey": 7042,
      "Ġcris": 7043,
      "Ġcrick": 7044,
      "Ġcrash": 7045,
      "Ġperc": 7046,
      "Ġperf": 7047,
      "Ġperu": 7048,
      "Ġperce": 7049,
      "Ġperman": 7050,
      "Ġpercent": 7051,
      "Ġperfect": 7052,
      "Ġperpet": 7053,
      "Ġperipher": 7054,
      "Ġindo": 7055,
      "Ġindir": 7056,
      "Ġindian": 7057,
      "Ġinduc": 7058,
      "Ġindex": 7059,
      "Ġindef": 7060,
      "Ġindones": 7061,
      "Ġindiffer": 7062,
      "Ġassert": 7063,
      "Ġabrupt": 7064,
      "Ġabbre": 7065,
      "Ġabolition": 7066,
      "Ġabnorm": 7067,
      "Ġintu": 7068,
      "Ġintrig": 7069,
      "Ġintention": 7070,
      "Ġintellig": 7071,
      "Ġ41": 7072,
      "Ġ42": 7073,
      "Ġ43": 7074,
      "Ġ44": 7075,
      "Ġ45": 7076,
      "Ġ46": 7077,
      "Ġ47": 7078,
      "Ġ48": 7079,
      "actic": 7080,
      "Ġcorps": 7081,
      "Ġcorrid": 7082,
      "Ġcorner": 7083,
      "Ġcorners": 7084,
      "Ġcorrupt": 7085,
      "Ġcorrel": 7086,
      "Ġpreval": 7087,
      "Ġpregn": 7088,
      "Ġprefect": 7089,
      "Ġfran": 7090,
      "Ġfrances": 7091,
      "Ġfreder": 7092,
      "Ġfranch": 7093,
      "Ġfrench": 7094,
      "Ġfresco": 7095,
      "Ġglam": 7096,
      "Ġglass": 7097,
      "Ġgloss": 7098,
      "Ġglouc": 7099,
      "Ġgraf": 7100,
      "Ġtransact": 7101,
      "Ġtranspar": 7102,
      "eva": 7103,
      "evant": 7104,
      "eville": 7105,
      "Ġæī": 7106,
      "Ġregard": 7107,
      "Ġregret": 7108,
      "ilee": 7109,
      "Ġsyll": 7110,
      "ounting": 7111,
      "ounced": 7112,
      "Ġzo": 7113,
      "Ġzen": 7114,
      "Ġzur": 7115,
      "Ġzim": 7116,
      "Ġzach": 7117,
      "Ġzomb": 7118,
      "aneously": 7119,
      "Ġreleg": 7120,
      "Ġrelief": 7121,
      "aceut": 7122,
      "aceous": 7123,
      "aceae": 7124,
      "ostic": 7125,
      "Ġdecided": 7126,
      "ictable": 7127,
      "Ġinvari": 7128,
      "azar": 7129,
      "Ġinsign": 7130,
      "Ġinsert": 7131,
      "Ġinsurg": 7132,
      "Ġinspir": 7133,
      "onduct": 7134,
      "Ġsurr": 7135,
      "Ġsurpass": 7136,
      "Ġweir": 7137,
      "Ġweight": 7138,
      "itha": 7139,
      "ithm": 7140,
      "ithic": 7141,
      "raphy": 7142,
      "rible": 7143,
      "ribly": 7144,
      "Ġsubur": 7145,
      "Ġsubmit": 7146,
      "Ġsubmar": 7147,
      "erved": 7148,
      "Ġoutdo": 7149,
      "Ġoutrage": 7150,
      "mina": 7151,
      "minated": 7152,
      "minating": 7153,
      "Ġattorn": 7154,
      "arma": 7155,
      "racts": 7156,
      "ample": 7157,
      "Ġski": 7158,
      "Ġskin": 7159,
      "Ġsket": 7160,
      "Ġskyl": 7161,
      "Ġskull": 7162,
      "Ġpeer": 7163,
      "Ġpean": 7164,
      "Ġroch": 7165,
      "Ġroad": 7166,
      "Ġrook": 7167,
      "Ġrough": 7168,
      "Ġroads": 7169,
      "Ġmanager": 7170,
      "Ġmanuscript": 7171,
      "Ġforth": 7172,
      "Ġforear": 7173,
      "Ġforget": 7174,
      "nesses": 7175,
      "Ġsmir": 7176,
      "Ġsmart": 7177,
      "Ġsmack": 7178,
      "Ġsmith": 7179,
      "Ġstep": 7180,
      "Ġsteel": 7181,
      "Ġremar": 7182,
      "Ġremain": 7183,
      "Ġremind": 7184,
      "heard": 7185,
      "heart": 7186,
      "headed": 7187,
      "Ġeditor": 7188,
      "Ġloud": 7189,
      "Ġlook": 7190,
      "Ġinfr": 7191,
      "duate": 7192,
      "lls": 7193,
      "llis": 7194,
      "llum": 7195,
      "Ġanton": 7196,
      "Ġantar": 7197,
      "Ġantenn": 7198,
      "ennis": 7199,
      "atorial": 7200,
      "Ġconfir": 7201,
      "Ġconflic": 7202,
      "Ġconfront": 7203,
      "Ġconfirm": 7204,
      "boards": 7205,
      "books": 7206,
      "linary": 7207,
      "sea": 7208,
      "Ġpolym": 7209,
      "Ġpolyn": 7210,
      "Ġbreed": 7211,
      "Ġbread": 7212,
      "Ġbreast": 7213,
      "Ġdistract": 7214,
      "etti": 7215,
      "ettes": 7216,
      "ĠÂ¹": 7217,
      "intend": 7218,
      "intosh": 7219,
      "Ġdoes": 7220,
      "Ġgreg": 7221,
      "Ġgreat": 7222,
      "Ġgreens": 7223,
      "Ġgregor": 7224,
      "Ġagain": 7225,
      "Ġagric": 7226,
      "Ġagree": 7227,
      "Ġmini": 7228,
      "Ġminister": 7229,
      "Ġterra": 7230,
      "Ġterrif": 7231,
      "Ġevangel": 7232,
      "Ġdiscret": 7233,
      "Ġpoor": 7234,
      "Ġpoet": 7235,
      "Ġpoint": 7236,
      "Ġpointed": 7237,
      "Ġpatron": 7238,
      "Ġpatient": 7239,
      "Ġpatrol": 7240,
      "Ġmeet": 7241,
      "Ġmeant": 7242,
      "Ġinstruction": 7243,
      "Ġrefle": 7244,
      "Ġrefug": 7245,
      "Ġrefurb": 7246,
      "othy": 7247,
      "auer": 7248,
      "Ġsolem": 7249,
      "Ġbrom": 7250,
      "Ġbroth": 7251,
      "Ġbrook": 7252,
      "Ġbrought": 7253,
      "Ġbrother": 7254,
      "Ġacid": 7255,
      "Ġincar": 7256,
      "Ġincent": 7257,
      "Ġincom": 7258,
      "Ġincred": 7259,
      "Ġjoint": 7260,
      "quez": 7261,
      "Ġdepri": 7262,
      "Ġdeput": 7263,
      "nery": 7264,
      "vised": 7265,
      "Ġ51": 7266,
      "Ġ52": 7267,
      "Ġ54": 7268,
      "Ġ55": 7269,
      "Ġ56": 7270,
      "Ġ57": 7271,
      "Ġçļ": 7272,
      "Ġentir": 7273,
      "Ġentert": 7274,
      "Ġbelg": 7275,
      "Ġbelief": 7276,
      "Ġbelarus": 7277,
      "Ġfeb": 7278,
      "Ġfeed": 7279,
      "Ġfeel": 7280,
      "Ġfeas": 7281,
      "Ġfeud": 7282,
      "Ġfeather": 7283,
      "Ġcalm": 7284,
      "Ġcalder": 7285,
      "Ġcaliph": 7286,
      "Ġmoz": 7287,
      "Ġmoon": 7288,
      "Ġmoist": 7289,
      "Ġdelight": 7290,
      "Ġdeliver": 7291,
      "Ġdeliber": 7292,
      "rada": 7293,
      "otto": 7294,
      "iffs": 7295,
      "maid": 7296,
      "ymes": 7297,
      "ympic": 7298,
      "Ġisol": 7299,
      "Ġparticular": 7300,
      "Ġhere": 7301,
      "Ġherald": 7302,
      "Ġhermit": 7303,
      "Ġharsh": 7304,
      "Ġharris": 7305,
      "Ġrepet": 7306,
      "Ġrepair": 7307,
      "loe": 7308,
      "loid": 7309,
      "loaded": 7310,
      "Ġeras": 7311,
      "Ġsnar": 7312,
      "Ġcaut": 7313,
      "Ġcause": 7314,
      "ussion": 7315,
      "Ġfinanc": 7316,
      "Ġfree": 7317,
      "Ġfrey": 7318,
      "Ġfreez": 7319,
      "Ġautob": 7320,
      "Ġautonom": 7321,
      "Ġoverl": 7322,
      "Ġknock": 7323,
      "Ġknox": 7324,
      "Ġserious": 7325,
      "Ġsales": 7326,
      "Ġsimult": 7327,
      "Ġretire": 7328,
      "Ġretriev": 7329,
      "Ġteamm": 7330,
      "ropolis": 7331,
      "Ġlaund": 7332,
      "Ġlaunch": 7333,
      "Ġdevote": 7334,
      "Ġéĩ": 7335,
      "Ġéķ": 7336,
      "Ġéĸ": 7337,
      "Ġéĺ": 7338,
      "ĠéĿ": 7339,
      "Ġtremb": 7340,
      "Ġnote": 7341,
      "Ġnottingham": 7342,
      "Ġexplan": 7343,
      "Ġexplicit": 7344,
      "brates": 7345,
      "bruck": 7346,
      "âĤĦ": 7347,
      "Ġrestaur": 7348,
      "Ġmalay": 7349,
      "Ġmalays": 7350,
      "Ġspecim": 7351,
      "Ġnews": 7352,
      "Ġnewsc": 7353,
      "Ġnewcom": 7354,
      "Ġnewsp": 7355,
      "Ġnewfound": 7356,
      "ega": 7357,
      "Ġiron": 7358,
      "Ġirreg": 7359,
      "Ġmedall": 7360,
      "Ġgeoff": 7361,
      "Ġwarn": 7362,
      "Ġwars": 7363,
      "Ġwarri": 7364,
      "Ġworth": 7365,
      "Ġworld": 7366,
      "Ġrevel": 7367,
      "Ġoffs": 7368,
      "Ġoffer": 7369,
      "Ġexpend": 7370,
      "Ġsupposed": 7371,
      "Ġ2010": 7372,
      "Ġcounsel": 7373,
      "lessly": 7374,
      "Ġuph": 7375,
      "Ġupl": 7376,
      "Ġschol": 7377,
      "aldi": 7378,
      "Ġports": 7379,
      "Ġportug": 7380,
      "Ġrobb": 7381,
      "Ġrobot": 7382,
      "Ġrobert": 7383,
      "Ġroberts": 7384,
      "Ġbraz": 7385,
      "Ġbrack": 7386,
      "Ġmaur": 7387,
      "Ġmaver": 7388,
      "Ġtwitch": 7389,
      "Ġavo": 7390,
      "Ġavoid": 7391,
      "Ġconcord": 7392,
      "Ġprotoc": 7393,
      "Ġprotector": 7394,
      "Ġprotagon": 7395,
      "Ġprototyp": 7396,
      "ews": 7397,
      "ewor": 7398,
      "scope": 7399,
      "Ġcroat": 7400,
      "Ġreds": 7401,
      "Ġredevelop": 7402,
      "Ġmagist": 7403,
      "Ġmagaz": 7404,
      "Ġmagdal": 7405,
      "Ġtrim": 7406,
      "Ġtrip": 7407,
      "Ġtriumph": 7408,
      "Ġtheod": 7409,
      "Ġtheolog": 7410,
      "borg": 7411,
      "fields": 7412,
      "ylon": 7413,
      "ylie": 7414,
      "ylvania": 7415,
      "Ġecosyst": 7416,
      "Ġpersonal": 7417,
      "Ġmoroc": 7418,
      "Ġmorph": 7419,
      "Ġmetab": 7420,
      "Ġmeteor": 7421,
      "Ġmotion": 7422,
      "Ġmotif": 7423,
      "Ġdiet": 7424,
      "Ġdetect": 7425,
      "Ġaftern": 7426,
      "Ġafghan": 7427,
      "Ġapocaly": 7428,
      "Ġhandic": 7429,
      "Ġvalley": 7430,
      "Ġsuperior": 7431,
      "Ġallow": 7432,
      "Ġenglish": 7433,
      "Ġelectro": 7434,
      "Ġelectric": 7435,
      "ggy": 7436,
      "iracy": 7437,
      "Ġsolid": 7438,
      "Ġburst": 7439,
      "Ġbasil": 7440,
      "Ġbasket": 7441,
      "Ġmcd": 7442,
      "Ġdivor": 7443,
      "Ġtoul": 7444,
      "Ġtoile": 7445,
      "Ġverte": 7446,
      "owski": 7447,
      "Ġcollar": 7448,
      "Ġcollier": 7449,
      "forms": 7450,
      "grin": 7451,
      "grass": 7452,
      "Ġèī": 7453,
      "Ġendors": 7454,
      "Ġ##Â´": 7455,
      "Ġhelp": 7456,
      "Ġhelpless": 7457,
      "Ġvision": 7458,
      "Ġvolley": 7459,
      "Ġvolunt": 7460,
      "Ġvolcano": 7461,
      "Ġprompt": 7462,
      "Ġlegit": 7463,
      "Ġlegend": 7464,
      "Ġcanon": 7465,
      "Ġpalat": 7466,
      "Ġmiddles": 7467,
      "Ġfilm": 7468,
      "Ġaffection": 7469,
      "Ġhoff": 7470,
      "Ġgoal": 7471,
      "Ġgoals": 7472,
      "Ġliberal": 7473,
      "Ġoccurr": 7474,
      "Ġoccasion": 7475,
      "Ġexcell": 7476,
      "Ġexcited": 7477,
      "Ġexcerpt": 7478,
      "cycle": 7479,
      "working": 7480,
      "world": 7481,
      "zza": 7482,
      "zzy": 7483,
      "zzled": 7484,
      "Ġxii": 7485,
      "Ġutter": 7486,
      "Ġanders": 7487,
      "Ġandrew": 7488,
      "Ġsquir": 7489,
      "Ġdonald": 7490,
      "Ġdirect": 7491,
      "Ġhonest": 7492,
      "Ġhoney": 7493,
      "Ġhonour": 7494,
      "Ġlands": 7495,
      "Ġlandown": 7496,
      "Ġprofound": 7497,
      "Ġpropag": 7498,
      "cula": 7499,
      "cules": 7500,
      "haus": 7501,
      "Ġolive": 7502,
      "Ġsatell": 7503,
      "Ġcentral": 7504,
      "Ġcentimet": 7505,
      "Ġposts": 7506,
      "Ġposthum": 7507,
      "Ġdenomin": 7508,
      "Ġhamburg": 7509,
      "Ġwreck": 7510,
      "Ġstraw": 7511,
      "Ġconven": 7512,
      "Ġaddress": 7513,
      "ducted": 7514,
      "ductive": 7515,
      "going": 7516,
      "guard": 7517,
      "Ġcapac": 7518,
      "Ġpeters": 7519,
      "Ġpassage": 7520,
      "Ġmembr": 7521,
      "Ġmembers": 7522,
      "Ġhurric": 7523,
      "Ġhurried": 7524,
      "Ġlocomot": 7525,
      "Ġshoulder": 7526,
      "Ġprovinc": 7527,
      "Ġartif": 7528,
      "Ġplayoff": 7529,
      "force": 7530,
      "Ġpenins": 7531,
      "Ġpunj": 7532,
      "Ġrhodes": 7533,
      "Ġradio": 7534,
      "Ġbackground": 7535,
      "Ġdownload": 7536,
      "Ġtorped": 7537,
      "Ġtelev": 7538,
      "Ġteleg": 7539,
      "Ġtelesc": 7540,
      "itzer": 7541,
      "Ġfleet": 7542,
      "Ġawa": 7543,
      "Ġawak": 7544,
      "Ġawkward": 7545,
      "Ġholid": 7546,
      "Ġhomosexual": 7547,
      "Ġgriffith": 7548,
      "Ġliturg": 7549,
      "Ġlabour": 7550,
      "Ġwilder": 7551,
      "Ġwilling": 7552,
      "Ġwilliam": 7553,
      "Ġwilliams": 7554,
      "ommy": 7555,
      "ommun": 7556,
      "Ġequival": 7557,
      "Ġstrike": 7558,
      "Ġowners": 7559,
      "Ġchristian": 7560,
      "stead": 7561,
      "atherine": 7562,
      "Ġ##âĪĴ": 7563,
      "dington": 7564,
      "lights": 7565,
      "ything": 7566,
      "Ġroman": 7567,
      "Ġhighland": 7568,
      "Ġopin": 7569,
      "ellington": 7570,
      "Ġembra": 7571,
      "Ġembark": 7572,
      "Ġembroid": 7573,
      "Ġdescript": 7574,
      "group": 7575,
      "took": 7576,
      "onomic": 7577,
      "Ġsemif": 7578,
      "Ġsummon": 7579,
      "Ġcatal": 7580,
      "Ġcataly": 7581,
      "Ġcatalog": 7582,
      "Ġcatastro": 7583,
      "Ġbullet": 7584,
      "Ġmartin": 7585,
      "Ġmartyr": 7586,
      "Ġdrive": 7587,
      "Ġauditor": 7588,
      "Ġhydra": 7589,
      "Ġhybrid": 7590,
      "Ġgalax": 7591,
      "ascar": 7592,
      "ascular": 7593,
      "Ġrebell": 7594,
      "Ġexpert": 7595,
      "Ġspeed": 7596,
      "Ġsubsp": 7597,
      "Ġsubsequ": 7598,
      "Ġpredomin": 7599,
      "Ġpredecess": 7600,
      "Ġencoun": 7601,
      "Ġrecept": 7602,
      "Ġreception": 7603,
      "Ġreceipt": 7604,
      "Ġjohnn": 7605,
      "Ġnorthe": 7606,
      "Ġnortham": 7607,
      "Ġnorthern": 7608,
      "bourne": 7609,
      "iety": 7610,
      "nesia": 7611,
      "named": 7612,
      "ttle": 7613,
      "tters": 7614,
      "Ġderiv": 7615,
      "Ġderby": 7616,
      "Ġfergus": 7617,
      "Ġeffort": 7618,
      "Ġefficient": 7619,
      "Ġopport": 7620,
      "Ġcomplain": 7621,
      "ophone": 7622,
      "Ġuncle": 7623,
      "Ġuncertain": 7624,
      "Ġ2000": 7625,
      "Ġcourts": 7626,
      "Ġcourage": 7627,
      "Ġpreced": 7628,
      "Ġambass": 7629,
      "Ġsurviv": 7630,
      "Ġviolin": 7631,
      "castle": 7632,
      "flies": 7633,
      "faction": 7634,
      "factory": 7635,
      "holm": 7636,
      "hoods": 7637,
      "iques": 7638,
      "logue": 7639,
      "marks": 7640,
      "pleas": 7641,
      "zek": 7642,
      "Ġignor": 7643,
      "onny": 7644,
      "onnell": 7645,
      "onnected": 7646,
      "Ġsometh": 7647,
      "atoes": 7648,
      "Ġbutton": 7649,
      "Ġbattal": 7650,
      "Ġbattle": 7651,
      "Ġtaxp": 7652,
      "itten": 7653,
      "Ġfraud": 7654,
      "Ġabsol": 7655,
      "Ġhalf": 7656,
      "Ġgerald": 7657,
      "rolled": 7658,
      "Ġlife": 7659,
      "Ġwait": 7660,
      "Ġwaist": 7661,
      "Ġwaters": 7662,
      "Ġepis": 7663,
      "Ġmarket": 7664,
      "Ġpremier": 7665,
      "Ġinflamm": 7666,
      "suit": 7667,
      "Ġiq": 7668,
      "Ġqur": 7669,
      "Ġurugu": 7670,
      "Ġcopy": 7671,
      "Ġrichard": 7672,
      "Ġbolshev": 7673,
      "Ġmillenn": 7674,
      "Ġdomes": 7675,
      "Ġnoct": 7676,
      "Ġoversee": 7677,
      "Ġjealous": 7678,
      "Ġshrub": 7679,
      "Ġcombat": 7680,
      "Ġneglect": 7681,
      "Ġheavy": 7682,
      "Ġmontene": 7683,
      "Ġfrancis": 7684,
      "Ġcircumst": 7685,
      "donald": 7686,
      "falls": 7687,
      "grade": 7688,
      "Ġiceland": 7689,
      "Ġethan": 7690,
      "Ġethiop": 7691,
      "Ġcartoon": 7692,
      "Ġpractition": 7693,
      "Ġborough": 7694,
      "Ġbanglad": 7695,
      "Ġmultip": 7696,
      "Ġmultipl": 7697,
      "Ġfaith": 7698,
      "Ġhawai": 7699,
      "umbered": 7700,
      "umberland": 7701,
      "Ġjuven": 7702,
      "Ġprosper": 7703,
      "Ġprosecut": 7704,
      "Ġsufficient": 7705,
      "Ġalexand": 7706,
      "Ġdissatis": 7707,
      "Ġdisappear": 7708,
      "Ġemerg": 7709,
      "Ġorigin": 7710,
      "Ġacquaint": 7711,
      "Ġprivate": 7712,
      "Ġcountry": 7713,
      "held": 7714,
      "helm": 7715,
      "oever": 7716,
      "space": 7717,
      "Ġelli": 7718,
      "Ġsarcast": 7719,
      "Ġsandwich": 7720,
      "Ġcease": 7721,
      "Ġcrimin": 7722,
      "Ġcruel": 7723,
      "alties": 7724,
      "Ġrodrig": 7725,
      "Ġmisunders": 7726,
      "Ġmathemat": 7727,
      "Ġmathematic": 7728,
      "Ġdigit": 7729,
      "Ġtournam": 7730,
      "Ġfurther": 7731,
      "Ġfamiliar": 7732,
      "Ġfisher": 7733,
      "Ġfundra": 7734,
      "Ġhunts": 7735,
      "Ġhunting": 7736,
      "Ġghost": 7737,
      "Ġghana": 7738,
      "Ġgodd": 7739,
      "Ġlisten": 7740,
      "Ġinnoc": 7741,
      "Ġversa": 7742,
      "Ġvictor": 7743,
      "Ġkeyboard": 7744,
      "Ġsharp": 7745,
      "Ġthrill": 7746,
      "Ġalleged": 7747,
      "Ġscrub": 7748,
      "Ġintroduct": 7749,
      "Ġintroduc": 7750,
      "Ġdoubt": 7751,
      "graduate": 7752,
      "Ġitalian": 7753,
      "Ġsediment": 7754,
      "Ġsacrament": 7755,
      "Ġcinder": 7756,
      "Ġcinemat": 7757,
      "Ġceremon": 7758,
      "Ġbernard": 7759,
      "Ġbuckingham": 7760,
      "Ġbombard": 7761,
      "Ġmistaken": 7762,
      "Ġmichel": 7763,
      "Ġmyster": 7764,
      "Ġdavid": 7765,
      "Ġazerbai": 7766,
      "Ġachiev": 7767,
      "Ġhenri": 7768,
      "Ġgabri": 7769,
      "Ġjourney": 7770,
      "Ġjewel": 7771,
      "Ġincorr": 7772,
      "Ġrepeated": 7773,
      "centric": 7774,
      "colo": 7775,
      "recht": 7776,
      "Ð¸Ñĩ": 7777,
      "Ġultra": 7778,
      "Ġrandom": 7779,
      "Ġbankrupt": 7780,
      "Ġbulldog": 7781,
      "Ġtoler": 7782,
      "Ġfolk": 7783,
      "Ġfirearm": 7784,
      "Ġfollow": 7785,
      "Ġaerod": 7786,
      "Ġaeronaut": 7787,
      "Ġhindu": 7788,
      "Ġhazard": 7789,
      "Ġlobby": 7790,
      "Ġwavelength": 7791,
      "Ġnapole": 7792,
      "Ġnickel": 7793,
      "Ġnikol": 7794,
      "Ġstreet": 7795,
      "Ġveh": 7796,
      "Ġspiritual": 7797,
      "Ġsudden": 7798,
      "Ġthrough": 7799,
      "Ġclergy": 7800,
      "Ġsexual": 7801,
      "Ġqueens": 7802,
      "Ġwhisper": 7803,
      "heimer": 7804,
      "Ġquarterf": 7805,
      "building": 7806,
      "broken": 7807,
      "eanor": 7808,
      "millan": 7809,
      "swick": 7810,
      "titled": 7811,
      "Ġingred": 7812,
      "Ġsouthe": 7813,
      "Ġsouthern": 7814,
      "Ġcanton": 7815,
      "Ġcatholic": 7816,
      "Ġpictures": 7817,
      "Ġbotan": 7818,
      "Ġmobil": 7819,
      "Ġdayton": 7820,
      "icultural": 7821,
      "Ġfirst": 7822,
      "Ġhesit": 7823,
      "Ġhousehold": 7824,
      "Ġlangu": 7825,
      "Ġninet": 7826,
      "Ġnutr": 7827,
      "Ġnutri": 7828,
      "Ġinherit": 7829,
      "Ġeyel": 7830,
      "osphere": 7831,
      "Ġchalleng": 7832,
      "Ġshadow": 7833,
      "Ġproceed": 7834,
      "Ġunsuccess": 7835,
      "Ġletter": 7836,
      "Ġrecruit": 7837,
      "Ġsurprising": 7838,
      "Ġevolution": 7839,
      "Ġinstrumental": 7840,
      "Ġincreasing": 7841,
      "Ġcambod": 7842,
      "Ġmicroscop": 7843,
      "Ġbehavior": 7844,
      "Ġjournal": 7845,
      "dorf": 7846,
      "friend": 7847,
      "kirk": 7848,
      "music": 7849,
      "natural": 7850,
      "powered": 7851,
      "Ð²Ð¸Ñĩ": 7852,
      "Ġernest": 7853,
      "Ġsoundtra": 7854,
      "Ġcertific": 7855,
      "Ġpsal": 7856,
      "Ġpamph": 7857,
      "Ġrapid": 7858,
      "Ġmountain": 7859,
      "Ġmammal": 7860,
      "Ġtrigg": 7861,
      "ionaire": 7862,
      "elihood": 7863,
      "Ġahmed": 7864,
      "Ġhellen": 7865,
      "Ġgorge": 7866,
      "Ġgentle": 7867,
      "Ġgustav": 7868,
      "Ġwesley": 7869,
      "Ġwolver": 7870,
      "Ġwelles": 7871,
      "Ġeyeb": 7872,
      "Ġstafford": 7873,
      "Ġvulner": 7874,
      "Ġconquer": 7875,
      "Ġkimber": 7876,
      "Ġadvertis": 7877,
      "Ġscandin": 7878,
      "Ġimperial": 7879,
      "Ġ##âģĦ": 7880,
      "Ġorphan": 7881,
      "Ġbaronet": 7882,
      "Ġmongol": 7883,
      "Ġforbid": 7884,
      "Ġobliv": 7885,
      "Ġconstantin": 7886,
      "Ġcouncill": 7887,
      "Ġtwenty": 7888,
      "Ġearthqu": 7889,
      "Ġtelecommun": 7890,
      "Ġhorizont": 7891,
      "Ġfulfill": 7892,
      "Ġjurisd": 7893,
      "Ġenvironment": 7894,
      "lifting": 7895,
      "minster": 7896,
      "rishna": 7897,
      "western": 7898,
      "Ġsincer": 7899,
      "Ġczechoslov": 7900,
      "Ġbishop": 7901,
      "Ġmaneu": 7902,
      "Ġdatab": 7903,
      "Ġtattoo": 7904,
      "Ġtaiwan": 7905,
      "Ġtornado": 7906,
      "Ġfashion": 7907,
      "Ġhypoth": 7908,
      "Ġgenealog": 7909,
      "Ġlithu": 7910,
      "Ġwerew": 7911,
      "Ġinhabit": 7912,
      "Ġstadium": 7913,
      "abulary": 7914,
      "Ġkazakh": 7915,
      "quisite": 7916,
      "Ġuncomfort": 7917,
      "physical": 7918,
      "Ġneutral": 7919,
      "Ġimprison": 7920,
      "Ġbeautiful": 7921,
      "Ġorthodox": 7922,
      "Ġpharmaceut": 7923,
      "cliffe": 7924,
      "Ġglobal": 7925,
      "Ġweapon": 7926,
      "Ġimpatient": 7927,
      "Ġenterpr": 7928,
      "Ġoverwhelming": 7929,
      "Ġexpedition": 7930,
      "Ġredesign": 7931,
      "Ġvietnam": 7932,
      "Ġjohannes": 7933,
      "Ġpilgrim": 7934,
      "Ġcitizens": 7935,
      "Ġtouchdown": 7936,
      "Ġentrepreneur": 7937,
      "court": 7938,
      "family": 7939,
      "houses": 7940,
      "Ġsultan": 7941,
      "Ġsovereign": 7942,
      "Ġcemeter": 7943,
      "Ġpomer": 7944,
      "Ġpseud": 7945,
      "Ġbenedict": 7946,
      "Ġhundred": 7947,
      "Ġhierarch": 7948,
      "Ġlincoln": 7949,
      "Ġnumer": 7950,
      "Ġvenezuel": 7951,
      "Ġjackson": 7952,
      "Ġchromos": 7953,
      "Ġunexpected": 7954,
      "Ġalgebra": 7955,
      "Ġparliament": 7956,
      "Ġabbrev": 7957,
      "Ġattorney": 7958,
      "Ġpolynom": 7959,
      "Ġsolemn": 7960,
      "Ġirregular": 7961,
      "Ġbangladesh": 7962,
      "Ġmisunderst": 7963,
      "01": 7964,
      "150": 7965,
      "180": 7966,
      "160": 7967,
      "170": 7968,
      "110": 7969,
      "120": 7970,
      "140": 7971,
      "130": 7972,
      "190": 7973,
      "125": 7974,
      "175": 7975,
      "121": 7976,
      "135": 7977,
      "124": 7978,
      "126": 7979,
      "128": 7980,
      "129": 7981,
      "134": 7982,
      "138": 7983,
      "136": 7984,
      "137": 7985,
      "139": 7986,
      "127": 7987,
      "133": 7988,
      "250": 7989,
      "280": 7990,
      "260": 7991,
      "270": 7992,
      "210": 7993,
      "220": 7994,
      "240": 7995,
      "230": 7996,
      "290": 7997,
      "211": 7998,
      "225": 7999,
      "275": 8000,
      "221": 8001,
      "235": 8002,
      "224": 8003,
      "226": 8004,
      "228": 8005,
      "229": 8006,
      "234": 8007,
      "238": 8008,
      "236": 8009,
      "237": 8010,
      "239": 8011,
      "227": 8012,
      "233": 8013,
      "300": 8014,
      "350": 8015,
      "380": 8016,
      "360": 8017,
      "370": 8018,
      "310": 8019,
      "320": 8020,
      "340": 8021,
      "330": 8022,
      "390": 8023,
      "311": 8024,
      "325": 8025,
      "375": 8026,
      "321": 8027,
      "335": 8028,
      "324": 8029,
      "326": 8030,
      "328": 8031,
      "329": 8032,
      "334": 8033,
      "338": 8034,
      "315": 8035,
      "316": 8036,
      "318": 8037,
      "336": 8038,
      "337": 8039,
      "339": 8040,
      "314": 8041,
      "317": 8042,
      "319": 8043,
      "327": 8044,
      "312": 8045,
      "322": 8046,
      "313": 8047,
      "323": 8048,
      "450": 8049,
      "480": 8050,
      "460": 8051,
      "470": 8052,
      "410": 8053,
      "420": 8054,
      "440": 8055,
      "430": 8056,
      "490": 8057,
      "411": 8058,
      "425": 8059,
      "475": 8060,
      "421": 8061,
      "435": 8062,
      "424": 8063,
      "426": 8064,
      "428": 8065,
      "429": 8066,
      "434": 8067,
      "438": 8068,
      "415": 8069,
      "416": 8070,
      "418": 8071,
      "436": 8072,
      "437": 8073,
      "439": 8074,
      "414": 8075,
      "417": 8076,
      "419": 8077,
      "427": 8078,
      "455": 8079,
      "465": 8080,
      "485": 8081,
      "466": 8082,
      "479": 8083,
      "489": 8084,
      "412": 8085,
      "486": 8086,
      "422": 8087,
      "433": 8088,
      "413": 8089,
      "423": 8090,
      "550": 8091,
      "580": 8092,
      "560": 8093,
      "570": 8094,
      "510": 8095,
      "520": 8096,
      "540": 8097,
      "530": 8098,
      "590": 8099,
      "511": 8100,
      "525": 8101,
      "575": 8102,
      "521": 8103,
      "535": 8104,
      "524": 8105,
      "526": 8106,
      "528": 8107,
      "529": 8108,
      "534": 8109,
      "538": 8110,
      "515": 8111,
      "516": 8112,
      "518": 8113,
      "536": 8114,
      "537": 8115,
      "539": 8116,
      "514": 8117,
      "517": 8118,
      "519": 8119,
      "527": 8120,
      "544": 8121,
      "565": 8122,
      "585": 8123,
      "545": 8124,
      "549": 8125,
      "566": 8126,
      "579": 8127,
      "589": 8128,
      "512": 8129,
      "586": 8130,
      "522": 8131,
      "533": 8132,
      "546": 8133,
      "547": 8134,
      "548": 8135,
      "513": 8136,
      "523": 8137,
      "587": 8138,
      "588": 8139,
      "543": 8140,
      "541": 8141,
      "532": 8142,
      "531": 8143,
      "542": 8144,
      "600": 8145,
      "650": 8146,
      "680": 8147,
      "660": 8148,
      "670": 8149,
      "610": 8150,
      "620": 8151,
      "640": 8152,
      "630": 8153,
      "690": 8154,
      "611": 8155,
      "625": 8156,
      "675": 8157,
      "621": 8158,
      "635": 8159,
      "624": 8160,
      "626": 8161,
      "628": 8162,
      "629": 8163,
      "634": 8164,
      "638": 8165,
      "615": 8166,
      "616": 8167,
      "618": 8168,
      "636": 8169,
      "637": 8170,
      "639": 8171,
      "614": 8172,
      "617": 8173,
      "619": 8174,
      "627": 8175,
      "644": 8176,
      "655": 8177,
      "665": 8178,
      "685": 8179,
      "645": 8180,
      "649": 8181,
      "679": 8182,
      "689": 8183,
      "612": 8184,
      "686": 8185,
      "622": 8186,
      "633": 8187,
      "646": 8188,
      "647": 8189,
      "648": 8190,
      "613": 8191,
      "623": 8192,
      "687": 8193,
      "688": 8194,
      "643": 8195,
      "641": 8196,
      "632": 8197,
      "631": 8198,
      "642": 8199,
      "71": 8200,
      "73": 8201,
      "74": 8202,
      "76": 8203,
      "700": 8204,
      "750": 8205,
      "780": 8206,
      "760": 8207,
      "770": 8208,
      "710": 8209,
      "720": 8210,
      "740": 8211,
      "730": 8212,
      "790": 8213,
      "711": 8214,
      "725": 8215,
      "775": 8216,
      "721": 8217,
      "735": 8218,
      "724": 8219,
      "726": 8220,
      "728": 8221,
      "729": 8222,
      "734": 8223,
      "738": 8224,
      "715": 8225,
      "716": 8226,
      "718": 8227,
      "736": 8228,
      "737": 8229,
      "739": 8230,
      "714": 8231,
      "717": 8232,
      "719": 8233,
      "727": 8234,
      "744": 8235,
      "765": 8236,
      "785": 8237,
      "745": 8238,
      "749": 8239,
      "766": 8240,
      "779": 8241,
      "789": 8242,
      "712": 8243,
      "786": 8244,
      "722": 8245,
      "733": 8246,
      "746": 8247,
      "747": 8248,
      "748": 8249,
      "713": 8250,
      "723": 8251,
      "787": 8252,
      "788": 8253,
      "743": 8254,
      "769": 8255,
      "741": 8256,
      "767": 8257,
      "732": 8258,
      "731": 8259,
      "742": 8260,
      "768": 8261,
      "764": 8262,
      "761": 8263,
      "762": 8264,
      "763": 8265,
      "800": 8266,
      "850": 8267,
      "880": 8268,
      "860": 8269,
      "870": 8270,
      "810": 8271,
      "820": 8272,
      "840": 8273,
      "830": 8274,
      "890": 8275,
      "811": 8276,
      "825": 8277,
      "875": 8278,
      "821": 8279,
      "835": 8280,
      "824": 8281,
      "826": 8282,
      "828": 8283,
      "829": 8284,
      "834": 8285,
      "838": 8286,
      "815": 8287,
      "816": 8288,
      "818": 8289,
      "836": 8290,
      "837": 8291,
      "839": 8292,
      "814": 8293,
      "817": 8294,
      "819": 8295,
      "827": 8296,
      "844": 8297,
      "855": 8298,
      "865": 8299,
      "885": 8300,
      "845": 8301,
      "849": 8302,
      "866": 8303,
      "879": 8304,
      "889": 8305,
      "812": 8306,
      "886": 8307,
      "822": 8308,
      "833": 8309,
      "846": 8310,
      "847": 8311,
      "848": 8312,
      "813": 8313,
      "823": 8314,
      "887": 8315,
      "843": 8316,
      "841": 8317,
      "832": 8318,
      "831": 8319,
      "842": 8320,
      "91": 8321,
      "93": 8322,
      "94": 8323,
      "96": 8324,
      "900": 8325,
      "950": 8326,
      "980": 8327,
      "960": 8328,
      "970": 8329,
      "910": 8330,
      "920": 8331,
      "940": 8332,
      "930": 8333,
      "990": 8334,
      "911": 8335,
      "925": 8336,
      "975": 8337,
      "921": 8338,
      "935": 8339,
      "924": 8340,
      "926": 8341,
      "928": 8342,
      "929": 8343,
      "934": 8344,
      "938": 8345,
      "915": 8346,
      "916": 8347,
      "918": 8348,
      "936": 8349,
      "937": 8350,
      "939": 8351,
      "914": 8352,
      "917": 8353,
      "919": 8354,
      "927": 8355,
      "944": 8356,
      "955": 8357,
      "965": 8358,
      "985": 8359,
      "945": 8360,
      "949": 8361,
      "966": 8362,
      "979": 8363,
      "989": 8364,
      "912": 8365,
      "986": 8366,
      "922": 8367,
      "933": 8368,
      "946": 8369,
      "947": 8370,
      "948": 8371,
      "913": 8372,
      "923": 8373,
      "959": 8374,
      "987": 8375,
      "956": 8376,
      "988": 8377,
      "943": 8378,
      "957": 8379,
      "969": 8380,
      "941": 8381,
      "967": 8382,
      "932": 8383,
      "977": 8384,
      "931": 8385,
      "942": 8386,
      "958": 8387,
      "968": 8388,
      "964": 8389,
      "961": 8390,
      "962": 8391,
      "963": 8392,
      "AD": 8393,
      "AS": 8394,
      "CL": 8395,
      "EP": 8396,
      "MAS": 8397,
      "NK": 8398,
      "PAD": 8399,
      "SEP": 8400,
      "UNK": 8401,
      "aj": 8402,
      "aq": 8403,
      "aer": 8404,
      "aan": 8405,
      "aia": 8406,
      "auc": 8407,
      "aire": 8408,
      "aise": 8409,
      "aism": 8410,
      "aith": 8411,
      "aels": 8412,
      "ause": 8413,
      "aena": 8414,
      "auts": 8415,
      "aimed": 8416,
      "aigned": 8417,
      "ajo": 8418,
      "ajan": 8419,
      "aques": 8420,
      "aeda": 8421,
      "aquin": 8422,
      "bf": 8423,
      "bh": 8424,
      "bm": 8425,
      "bt": 8426,
      "bes": 8427,
      "ben": 8428,
      "bat": 8429,
      "bic": 8430,
      "bur": 8431,
      "bol": 8432,
      "bet": 8433,
      "bec": 8434,
      "bation": 8435,
      "bri": 8436,
      "bly": 8437,
      "bul": 8438,
      "bid": 8439,
      "bos": 8440,
      "bad": 8441,
      "bag": 8442,
      "best": 8443,
      "bab": 8444,
      "bant": 8445,
      "bay": 8446,
      "bate": 8447,
      "bies": 8448,
      "bill": 8449,
      "bain": 8450,
      "bang": 8451,
      "bib": 8452,
      "bine": 8453,
      "bors": 8454,
      "bund": 8455,
      "bial": 8456,
      "bey": 8457,
      "bry": 8458,
      "bath": 8459,
      "bee": 8460,
      "bah": 8461,
      "bear": 8462,
      "bron": 8463,
      "bbs": 8464,
      "bley": 8465,
      "bio": 8466,
      "bied": 8467,
      "bold": 8468,
      "bank": 8469,
      "bits": 8470,
      "bina": 8471,
      "buck": 8472,
      "bham": 8473,
      "bush": 8474,
      "bett": 8475,
      "bular": 8476,
      "bred": 8477,
      "bility": 8478,
      "beth": 8479,
      "bau": 8480,
      "bara": 8481,
      "bner": 8482,
      "blo": 8483,
      "bby": 8484,
      "bler": 8485,
      "bution": 8486,
      "bians": 8487,
      "boll": 8488,
      "bony": 8489,
      "bari": 8490,
      "bots": 8491,
      "bbe": 8492,
      "bull": 8493,
      "bows": 8494,
      "bius": 8495,
      "bino": 8496,
      "bble": 8497,
      "bha": 8498,
      "bones": 8499,
      "bala": 8500,
      "beck": 8501,
      "brew": 8502,
      "bands": 8503,
      "bella": 8504,
      "belle": 8505,
      "bola": 8506,
      "bilt": 8507,
      "bilities": 8508,
      "bridge": 8509,
      "buch": 8510,
      "balt": 8511,
      "bria": 8512,
      "banded": 8513,
      "bolic": 8514,
      "block": 8515,
      "bags": 8516,
      "belt": 8517,
      "bucks": 8518,
      "bride": 8519,
      "buster": 8520,
      "burst": 8521,
      "buro": 8522,
      "bolt": 8523,
      "bahn": 8524,
      "baldi": 8525,
      "cb": 8526,
      "cm": 8527,
      "cp": 8528,
      "cu": 8529,
      "cin": 8530,
      "cen": 8531,
      "cat": 8532,
      "cal": 8533,
      "cis": 8534,
      "cic": 8535,
      "cit": 8536,
      "cur": 8537,
      "cra": 8538,
      "cre": 8539,
      "cation": 8540,
      "cam": 8541,
      "cter": 8542,
      "cum": 8543,
      "cow": 8544,
      "cod": 8545,
      "cate": 8546,
      "cian": 8547,
      "card": 8548,
      "cop": 8549,
      "cend": 8550,
      "city": 8551,
      "cap": 8552,
      "cens": 8553,
      "cans": 8554,
      "cial": 8555,
      "cating": 8556,
      "cable": 8557,
      "cure": 8558,
      "cence": 8559,
      "cide": 8560,
      "crow": 8561,
      "cio": 8562,
      "cier": 8563,
      "cise": 8564,
      "cite": 8565,
      "cene": 8566,
      "camp": 8567,
      "cina": 8568,
      "cana": 8569,
      "corn": 8570,
      "cium": 8571,
      "cology": 8572,
      "cake": 8573,
      "cured": 8574,
      "cines": 8575,
      "cery": 8576,
      "cute": 8577,
      "coll": 8578,
      "cony": 8579,
      "came": 8580,
      "cars": 8581,
      "cards": 8582,
      "cope": 8583,
      "cave": 8584,
      "cius": 8585,
      "cino": 8586,
      "cuff": 8587,
      "cased": 8588,
      "count": 8589,
      "cote": 8590,
      "ciously": 8591,
      "code": 8592,
      "cape": 8593,
      "cision": 8594,
      "cola": 8595,
      "cidae": 8596,
      "cini": 8597,
      "cany": 8598,
      "codes": 8599,
      "cona": 8600,
      "creen": 8601,
      "crest": 8602,
      "cuit": 8603,
      "cibly": 8604,
      "cratic": 8605,
      "corer": 8606,
      "ciful": 8607,
      "cross": 8608,
      "cchi": 8609,
      "cabi": 8610,
      "culture": 8611,
      "contin": 8612,
      "cestershire": 8613,
      "croft": 8614,
      "cultural": 8615,
      "connected": 8616,
      "db": 8617,
      "dh": 8618,
      "dl": 8619,
      "dm": 8620,
      "dn": 8621,
      "dr": 8622,
      "dt": 8623,
      "dan": 8624,
      "dar": 8625,
      "dus": 8626,
      "dun": 8627,
      "dis": 8628,
      "dic": 8629,
      "dit": 8630,
      "dion": 8631,
      "del": 8632,
      "dur": 8633,
      "das": 8634,
      "dent": 8635,
      "dre": 8636,
      "dation": 8637,
      "dig": 8638,
      "dot": 8639,
      "dos": 8640,
      "dim": 8641,
      "dest": 8642,
      "dant": 8643,
      "date": 8644,
      "dian": 8645,
      "dies": 8646,
      "dak": 8647,
      "dated": 8648,
      "dell": 8649,
      "dain": 8650,
      "dav": 8651,
      "dity": 8652,
      "dine": 8653,
      "dans": 8654,
      "dial": 8655,
      "dry": 8656,
      "dick": 8657,
      "dust": 8658,
      "dating": 8659,
      "dable": 8660,
      "dee": 8661,
      "dder": 8662,
      "dge": 8663,
      "dance": 8664,
      "dock": 8665,
      "dah": 8666,
      "diss": 8667,
      "dling": 8668,
      "dings": 8669,
      "dron": 8670,
      "dents": 8671,
      "dley": 8672,
      "dates": 8673,
      "dition": 8674,
      "dio": 8675,
      "dier": 8676,
      "dev": 8677,
      "dai": 8678,
      "dice": 8679,
      "daf": 8680,
      "dina": 8681,
      "dson": 8682,
      "dana": 8683,
      "dham": 8684,
      "dae": 8685,
      "dose": 8686,
      "dium": 8687,
      "dened": 8688,
      "dara": 8689,
      "dient": 8690,
      "dner": 8691,
      "dlet": 8692,
      "dome": 8693,
      "dives": 8694,
      "dler": 8695,
      "dou": 8696,
      "dna": 8697,
      "dney": 8698,
      "dden": 8699,
      "dha": 8700,
      "doms": 8701,
      "ddy": 8702,
      "dberg": 8703,
      "deck": 8704,
      "dding": 8705,
      "dication": 8706,
      "dote": 8707,
      "dwell": 8708,
      "disc": 8709,
      "drew": 8710,
      "ddle": 8711,
      "dhi": 8712,
      "dded": 8713,
      "dget": 8714,
      "diment": 8715,
      "drum": 8716,
      "drick": 8717,
      "dini": 8718,
      "dora": 8719,
      "dridge": 8720,
      "drich": 8721,
      "dlow": 8722,
      "dicate": 8723,
      "dicated": 8724,
      "dilly": 8725,
      "dda": 8726,
      "dhar": 8727,
      "dran": 8728,
      "ditional": 8729,
      "drik": 8730,
      "dgets": 8731,
      "daughter": 8732,
      "drive": 8733,
      "eb": 8734,
      "eh": 8735,
      "ej": 8736,
      "eu": 8737,
      "ein": 8738,
      "eat": 8739,
      "eis": 8740,
      "eit": 8741,
      "eur": 8742,
      "eil": 8743,
      "eet": 8744,
      "eers": 8745,
      "eid": 8746,
      "eist": 8747,
      "eum": 8748,
      "eia": 8749,
      "eak": 8750,
      "eber": 8751,
      "eps": 8752,
      "eering": 8753,
      "egan": 8754,
      "eau": 8755,
      "eft": 8756,
      "eption": 8757,
      "eger": 8758,
      "eke": 8759,
      "eurs": 8760,
      "eka": 8761,
      "eological": 8762,
      "eki": 8763,
      "eux": 8764,
      "ehan": 8765,
      "easing": 8766,
      "eiro": 8767,
      "eptic": 8768,
      "ephone": 8769,
      "ebidae": 8770,
      "eborg": 8771,
      "fk": 8772,
      "fm": 8773,
      "fp": 8774,
      "fr": 8775,
      "fu": 8776,
      "fed": 8777,
      "fen": 8778,
      "fat": 8779,
      "fit": 8780,
      "fur": 8781,
      "fil": 8782,
      "fra": 8783,
      "fest": 8784,
      "fia": 8785,
      "fies": 8786,
      "fill": 8787,
      "fell": 8788,
      "fine": 8789,
      "four": 8790,
      "fles": 8791,
      "fman": 8792,
      "fide": 8793,
      "fair": 8794,
      "fax": 8795,
      "fram": 8796,
      "frid": 8797,
      "feng": 8798,
      "fica": 8799,
      "fano": 8800,
      "flight": 8801,
      "fication": 8802,
      "fusion": 8803,
      "fiction": 8804,
      "filt": 8805,
      "fires": 8806,
      "finger": 8807,
      "firm": 8808,
      "free": 8809,
      "founded": 8810,
      "ficial": 8811,
      "felt": 8812,
      "folia": 8813,
      "facts": 8814,
      "fighter": 8815,
      "feld": 8816,
      "firmed": 8817,
      "fielder": 8818,
      "function": 8819,
      "folio": 8820,
      "fahan": 8821,
      "gf": 8822,
      "gp": 8823,
      "gon": 8824,
      "gat": 8825,
      "gis": 8826,
      "gle": 8827,
      "gur": 8828,
      "gol": 8829,
      "gom": 8830,
      "gation": 8831,
      "gly": 8832,
      "gul": 8833,
      "gut": 8834,
      "got": 8835,
      "gist": 8836,
      "gum": 8837,
      "gow": 8838,
      "gate": 8839,
      "gard": 8840,
      "gated": 8841,
      "gens": 8842,
      "gall": 8843,
      "gey": 8844,
      "gary": 8845,
      "gely": 8846,
      "gating": 8847,
      "gage": 8848,
      "gles": 8849,
      "good": 8850,
      "gally": 8851,
      "gley": 8852,
      "gne": 8853,
      "gone": 8854,
      "gong": 8855,
      "gold": 8856,
      "gile": 8857,
      "gai": 8858,
      "gged": 8859,
      "gram": 8860,
      "gina": 8861,
      "gative": 8862,
      "gson": 8863,
      "gade": 8864,
      "gau": 8865,
      "gible": 8866,
      "gger": 8867,
      "gler": 8868,
      "gna": 8869,
      "gues": 8870,
      "gned": 8871,
      "game": 8872,
      "gata": 8873,
      "getic": 8874,
      "garian": 8875,
      "gender": 8876,
      "giers": 8877,
      "giate": 8878,
      "ghi": 8879,
      "gizing": 8880,
      "gonal": 8881,
      "games": 8882,
      "gawa": 8883,
      "gpur": 8884,
      "gado": 8885,
      "girl": 8886,
      "gfried": 8887,
      "gunda": 8888,
      "hc": 8889,
      "hd": 8890,
      "hg": 8891,
      "hh": 8892,
      "hm": 8893,
      "hn": 8894,
      "hz": 8895,
      "hon": 8896,
      "hal": 8897,
      "his": 8898,
      "hic": 8899,
      "hit": 8900,
      "hur": 8901,
      "has": 8902,
      "hil": 8903,
      "hom": 8904,
      "hre": 8905,
      "hri": 8906,
      "hly": 8907,
      "hul": 8908,
      "hut": 8909,
      "hid": 8910,
      "hot": 8911,
      "hos": 8912,
      "hter": 8913,
      "hir": 8914,
      "hum": 8915,
      "hay": 8916,
      "hia": 8917,
      "hian": 8918,
      "hog": 8919,
      "hak": 8920,
      "hend": 8921,
      "hell": 8922,
      "hort": 8923,
      "hart": 8924,
      "hine": 8925,
      "hey": 8926,
      "hee": 8927,
      "hatt": 8928,
      "hru": 8929,
      "hide": 8930,
      "hear": 8931,
      "hore": 8932,
      "hue": 8933,
      "hair": 8934,
      "hound": 8935,
      "hong": 8936,
      "houn": 8937,
      "hane": 8938,
      "high": 8939,
      "happ": 8940,
      "hana": 8941,
      "hale": 8942,
      "hett": 8943,
      "hae": 8944,
      "horn": 8945,
      "heng": 8946,
      "hara": 8947,
      "hner": 8948,
      "hiff": 8949,
      "hler": 8950,
      "hony": 8951,
      "hari": 8952,
      "hyl": 8953,
      "hope": 8954,
      "hms": 8955,
      "hole": 8956,
      "haul": 8957,
      "hala": 8958,
      "hoff": 8959,
      "hani": 8960,
      "hops": 8961,
      "haling": 8962,
      "hita": 8963,
      "haps": 8964,
      "hipped": 8965,
      "hua": 8966,
      "hila": 8967,
      "hof": 8968,
      "hwin": 8969,
      "hini": 8970,
      "hesis": 8971,
      "hoe": 8972,
      "halt": 8973,
      "hima": 8974,
      "haya": 8975,
      "hmi": 8976,
      "hran": 8977,
      "hosh": 8978,
      "hosis": 8979,
      "hwa": 8980,
      "hdi": 8981,
      "hiti": 8982,
      "hurst": 8983,
      "hiko": 8984,
      "ih": 8985,
      "iq": 8986,
      "iu": 8987,
      "iy": 8988,
      "iol": 8989,
      "iom": 8990,
      "iri": 8991,
      "iem": 8992,
      "iard": 8993,
      "iast": 8994,
      "iks": 8995,
      "iour": 8996,
      "iov": 8997,
      "iage": 8998,
      "iates": 8999,
      "iets": 9000,
      "iative": 9001,
      "iator": 9002,
      "ieth": 9003,
      "iatic": 9004,
      "iots": 9005,
      "iately": 9006,
      "iaries": 9007,
      "iries": 9008,
      "ioms": 9009,
      "iette": 9010,
      "iability": 9011,
      "iya": 9012,
      "irie": 9013,
      "iidae": 9014,
      "ija": 9015,
      "iago": 9016,
      "iologist": 9017,
      "iencing": 9018,
      "ioles": 9019,
      "iographical": 9020,
      "iaceae": 9021,
      "jk": 9022,
      "jm": 9023,
      "jn": 9024,
      "ju": 9025,
      "jer": 9026,
      "jon": 9027,
      "jal": 9028,
      "jor": 9029,
      "jic": 9030,
      "jit": 9031,
      "jas": 9032,
      "jet": 9033,
      "jid": 9034,
      "jos": 9035,
      "jad": 9036,
      "jia": 9037,
      "jak": 9038,
      "jav": 9039,
      "jud": 9040,
      "jub": 9041,
      "just": 9042,
      "jack": 9043,
      "jure": 9044,
      "jah": 9045,
      "jik": 9046,
      "jong": 9047,
      "jara": 9048,
      "jou": 9049,
      "jured": 9050,
      "jani": 9051,
      "jali": 9052,
      "joys": 9053,
      "jima": 9054,
      "jean": 9055,
      "jhl": 9056,
      "jandro": 9057,
      "kk": 9058,
      "km": 9059,
      "kn": 9060,
      "kr": 9061,
      "ku": 9062,
      "kw": 9063,
      "kus": 9064,
      "kal": 9065,
      "kor": 9066,
      "kis": 9067,
      "kic": 9068,
      "kle": 9069,
      "kur": 9070,
      "kra": 9071,
      "kam": 9072,
      "kul": 9073,
      "kot": 9074,
      "kos": 9075,
      "kim": 9076,
      "kia": 9077,
      "kian": 9078,
      "kies": 9079,
      "kie": 9080,
      "kill": 9081,
      "kell": 9082,
      "kine": 9083,
      "kick": 9084,
      "kok": 9085,
      "kled": 9086,
      "kling": 9087,
      "kley": 9088,
      "kind": 9089,
      "kash": 9090,
      "kland": 9091,
      "kong": 9092,
      "kai": 9093,
      "kets": 9094,
      "kina": 9095,
      "kush": 9096,
      "kara": 9097,
      "kner": 9098,
      "krit": 9099,
      "kou": 9100,
      "kla": 9101,
      "kless": 9102,
      "kari": 9103,
      "kney": 9104,
      "kiew": 9105,
      "kka": 9106,
      "kker": 9107,
      "katch": 9108,
      "kki": 9109,
      "kata": 9110,
      "kha": 9111,
      "kala": 9112,
      "koff": 9113,
      "khan": 9114,
      "kato": 9115,
      "kura": 9116,
      "kko": 9117,
      "kali": 9118,
      "kota": 9119,
      "kawa": 9120,
      "kken": 9121,
      "kaya": 9122,
      "kenny": 9123,
      "khar": 9124,
      "koto": 9125,
      "khand": 9126,
      "kumar": 9127,
      "kowski": 9128,
      "krishna": 9129,
      "kjav": 9130,
      "lc": 9131,
      "lf": 9132,
      "lk": 9133,
      "lm": 9134,
      "ln": 9135,
      "lp": 9136,
      "lr": 9137,
      "lt": 9138,
      "lz": 9139,
      "len": 9140,
      "lat": 9141,
      "lar": 9142,
      "lus": 9143,
      "lun": 9144,
      "lal": 9145,
      "lis": 9146,
      "lit": 9147,
      "lion": 9148,
      "lle": 9149,
      "lent": 9150,
      "lom": 9151,
      "lch": 9152,
      "lation": 9153,
      "lly": 9154,
      "lid": 9155,
      "lot": 9156,
      "los": 9157,
      "list": 9158,
      "lter": 9159,
      "lum": 9160,
      "lab": 9161,
      "lce": 9162,
      "lay": 9163,
      "late": 9164,
      "lth": 9165,
      "lard": 9166,
      "lak": 9167,
      "lop": 9168,
      "lated": 9169,
      "lous": 9170,
      "lver": 9171,
      "lell": 9172,
      "lity": 9173,
      "lical": 9174,
      "lang": 9175,
      "lib": 9176,
      "lund": 9177,
      "lary": 9178,
      "lick": 9179,
      "lok": 9180,
      "lled": 9181,
      "lts": 9182,
      "lub": 9183,
      "lating": 9184,
      "lage": 9185,
      "lton": 9186,
      "lles": 9187,
      "lder": 9188,
      "lge": 9189,
      "lence": 9190,
      "lman": 9191,
      "lling": 9192,
      "lins": 9193,
      "lind": 9194,
      "lates": 9195,
      "lland": 9196,
      "lio": 9197,
      "lone": 9198,
      "lics": 9199,
      "lai": 9200,
      "lism": 9201,
      "lict": 9202,
      "laz": 9203,
      "lite": 9204,
      "lene": 9205,
      "lice": 9206,
      "lized": 9207,
      "lty": 9208,
      "lina": 9209,
      "lative": 9210,
      "lson": 9211,
      "lana": 9212,
      "lham": 9213,
      "lase": 9214,
      "lium": 9215,
      "lists": 9216,
      "lific": 9217,
      "lau": 9218,
      "lvis": 9219,
      "liff": 9220,
      "lake": 9221,
      "lma": 9222,
      "llet": 9223,
      "lby": 9224,
      "lford": 9225,
      "lves": 9226,
      "lke": 9227,
      "lco": 9228,
      "lude": 9229,
      "lved": 9230,
      "lving": 9231,
      "lde": 9232,
      "lars": 9233,
      "lime": 9234,
      "lius": 9235,
      "lka": 9236,
      "lmer": 9237,
      "lta": 9238,
      "lena": 9239,
      "lization": 9240,
      "lden": 9241,
      "lberg": 9242,
      "lux": 9243,
      "litz": 9244,
      "lding": 9245,
      "liers": 9246,
      "lani": 9247,
      "lto": 9248,
      "lature": 9249,
      "lga": 9250,
      "lita": 9251,
      "listed": 9252,
      "listic": 9253,
      "lds": 9254,
      "lusion": 9255,
      "lidae": 9256,
      "lbert": 9257,
      "ldon": 9258,
      "lastic": 9259,
      "locked": 9260,
      "lten": 9261,
      "laya": 9262,
      "luded": 9263,
      "lda": 9264,
      "lho": 9265,
      "lva": 9266,
      "lantic": 9267,
      "lston": 9268,
      "layer": 9269,
      "lims": 9270,
      "lenburg": 9271,
      "lizer": 9272,
      "linson": 9273,
      "lateral": 9274,
      "ljana": 9275,
      "lwyn": 9276,
      "lanca": 9277,
      "lithic": 9278,
      "lkirk": 9279,
      "mc": 9280,
      "md": 9281,
      "mp": 9282,
      "mt": 9283,
      "mu": 9284,
      "mw": 9285,
      "mx": 9286,
      "mat": 9287,
      "mis": 9288,
      "mur": 9289,
      "mation": 9290,
      "mut": 9291,
      "mac": 9292,
      "mot": 9293,
      "mos": 9294,
      "mum": 9295,
      "mand": 9296,
      "mant": 9297,
      "may": 9298,
      "mia": 9299,
      "mian": 9300,
      "mies": 9301,
      "mpt": 9302,
      "mend": 9303,
      "mated": 9304,
      "mous": 9305,
      "mity": 9306,
      "mart": 9307,
      "mens": 9308,
      "mish": 9309,
      "math": 9310,
      "mov": 9311,
      "might": 9312,
      "mely": 9313,
      "mack": 9314,
      "mable": 9315,
      "mage": 9316,
      "mber": 9317,
      "mide": 9318,
      "mings": 9319,
      "mbs": 9320,
      "mind": 9321,
      "mps": 9322,
      "mich": 9323,
      "mics": 9324,
      "mered": 9325,
      "mise": 9326,
      "mism": 9327,
      "max": 9328,
      "mits": 9329,
      "mite": 9330,
      "mbo": 9331,
      "mett": 9332,
      "made": 9333,
      "mium": 9334,
      "meter": 9335,
      "mara": 9336,
      "mient": 9337,
      "mology": 9338,
      "mott": 9339,
      "muss": 9340,
      "mler": 9341,
      "mute": 9342,
      "mony": 9343,
      "mbe": 9344,
      "mme": 9345,
      "mmer": 9346,
      "mese": 9347,
      "moon": 9348,
      "mata": 9349,
      "maries": 9350,
      "macy": 9351,
      "making": 9352,
      "mount": 9353,
      "mberg": 9354,
      "mca": 9355,
      "maker": 9356,
      "mwell": 9357,
      "mple": 9358,
      "mura": 9359,
      "mora": 9360,
      "mament": 9361,
      "mother": 9362,
      "mpton": 9363,
      "makers": 9364,
      "moral": 9365,
      "mada": 9366,
      "manned": 9367,
      "moto": 9368,
      "mounted": 9369,
      "mori": 9370,
      "masters": 9371,
      "meyer": 9372,
      "macht": 9373,
      "mobile": 9374,
      "nb": 9375,
      "nc": 9376,
      "ng": 9377,
      "nh": 9378,
      "nk": 9379,
      "nl": 9380,
      "np": 9381,
      "nr": 9382,
      "nx": 9383,
      "nz": 9384,
      "nin": 9385,
      "non": 9386,
      "nen": 9387,
      "nus": 9388,
      "nal": 9389,
      "nor": 9390,
      "nis": 9391,
      "nas": 9392,
      "nent": 9393,
      "net": 9394,
      "nch": 9395,
      "nac": 9396,
      "nig": 9397,
      "not": 9398,
      "niv": 9399,
      "nos": 9400,
      "nad": 9401,
      "nist": 9402,
      "nir": 9403,
      "num": 9404,
      "nag": 9405,
      "nce": 9406,
      "nst": 9407,
      "nay": 9408,
      "nies": 9409,
      "nated": 9410,
      "nous": 9411,
      "nity": 9412,
      "nical": 9413,
      "nib": 9414,
      "nine": 9415,
      "nall": 9416,
      "nary": 9417,
      "nted": 9418,
      "nath": 9419,
      "nov": 9420,
      "nick": 9421,
      "nts": 9422,
      "nable": 9423,
      "nob": 9424,
      "nee": 9425,
      "nton": 9426,
      "nder": 9427,
      "nge": 9428,
      "nance": 9429,
      "nock": 9430,
      "nah": 9431,
      "nte": 9432,
      "nting": 9433,
      "nail": 9434,
      "nally": 9435,
      "nne": 9436,
      "nio": 9437,
      "nier": 9438,
      "nold": 9439,
      "nai": 9440,
      "nism": 9441,
      "nged": 9442,
      "nets": 9443,
      "nare": 9444,
      "nched": 9445,
      "nty": 9446,
      "nson": 9447,
      "nator": 9448,
      "nham": 9449,
      "nse": 9450,
      "nering": 9451,
      "nett": 9452,
      "nae": 9453,
      "nants": 9454,
      "nium": 9455,
      "nels": 9456,
      "nction": 9457,
      "nology": 9458,
      "nome": 9459,
      "nger": 9460,
      "nished": 9461,
      "nco": 9462,
      "nna": 9463,
      "nified": 9464,
      "national": 9465,
      "nburg": 9466,
      "nde": 9467,
      "nka": 9468,
      "nta": 9469,
      "nese": 9470,
      "nica": 9471,
      "ncy": 9472,
      "nche": 9473,
      "nging": 9474,
      "netic": 9475,
      "ngo": 9476,
      "nberg": 9477,
      "ngen": 9478,
      "nitz": 9479,
      "neck": 9480,
      "nca": 9481,
      "nto": 9482,
      "nya": 9483,
      "nza": 9484,
      "nga": 9485,
      "nba": 9486,
      "nidae": 9487,
      "nival": 9488,
      "nstein": 9489,
      "nko": 9490,
      "nzo": 9491,
      "necess": 9492,
      "nbc": 9493,
      "nicity": 9494,
      "nosis": 9495,
      "notes": 9496,
      "ncia": 9497,
      "nesty": 9498,
      "nova": 9499,
      "ncies": 9500,
      "nberger": 9501,
      "nostic": 9502,
      "numbered": 9503,
      "oi": 9504,
      "oj": 9505,
      "oed": 9506,
      "oen": 9507,
      "oat": 9508,
      "oing": 9509,
      "oic": 9510,
      "oused": 9511,
      "oos": 9512,
      "oum": 9513,
      "oia": 9514,
      "oard": 9515,
      "oine": 9516,
      "ook": 9517,
      "oue": 9518,
      "oque": 9519,
      "oese": 9520,
      "oche": 9521,
      "ooms": 9522,
      "oining": 9523,
      "oides": 9524,
      "oaded": 9525,
      "opping": 9526,
      "oiled": 9527,
      "ooted": 9528,
      "ools": 9529,
      "oja": 9530,
      "ooker": 9531,
      "pc": 9532,
      "pd": 9533,
      "pf": 9534,
      "pi": 9535,
      "pu": 9536,
      "pw": 9537,
      "py": 9538,
      "pin": 9539,
      "pis": 9540,
      "pion": 9541,
      "pas": 9542,
      "pent": 9543,
      "pol": 9544,
      "pac": 9545,
      "pid": 9546,
      "pot": 9547,
      "pos": 9548,
      "pad": 9549,
      "pest": 9550,
      "pod": 9551,
      "pia": 9552,
      "pate": 9553,
      "pian": 9554,
      "pies": 9555,
      "pop": 9556,
      "pend": 9557,
      "pell": 9558,
      "pical": 9559,
      "pment": 9560,
      "pour": 9561,
      "page": 9562,
      "pee": 9563,
      "pear": 9564,
      "pins": 9565,
      "pore": 9566,
      "pio": 9567,
      "pone": 9568,
      "pair": 9569,
      "pile": 9570,
      "pina": 9571,
      "park": 9572,
      "pants": 9573,
      "pose": 9574,
      "para": 9575,
      "pels": 9576,
      "pole": 9577,
      "puted": 9578,
      "posed": 9579,
      "pices": 9580,
      "pala": 9581,
      "poo": 9582,
      "pani": 9583,
      "pike": 9584,
      "pkins": 9585,
      "prom": 9586,
      "pura": 9587,
      "pany": 9588,
      "pires": 9589,
      "pali": 9590,
      "pipe": 9591,
      "pati": 9592,
      "polis": 9593,
      "pensive": 9594,
      "pread": 9595,
      "pods": 9596,
      "paper": 9597,
      "pburn": 9598,
      "pcion": 9599,
      "piracy": 9600,
      "qa": 9601,
      "qv": 9602,
      "qing": 9603,
      "rb": 9604,
      "rc": 9605,
      "rf": 9606,
      "rg": 9607,
      "rh": 9608,
      "rk": 9609,
      "rl": 9610,
      "rm": 9611,
      "rp": 9612,
      "rer": 9613,
      "rion": 9614,
      "rle": 9615,
      "rro": 9616,
      "rra": 9617,
      "rch": 9618,
      "rre": 9619,
      "rri": 9620,
      "rly": 9621,
      "rut": 9622,
      "rter": 9623,
      "rce": 9624,
      "rth": 9625,
      "rard": 9626,
      "rud": 9627,
      "rity": 9628,
      "rks": 9629,
      "rary": 9630,
      "rted": 9631,
      "rry": 9632,
      "rath": 9633,
      "rled": 9634,
      "rts": 9635,
      "rton": 9636,
      "rder": 9637,
      "rge": 9638,
      "rber": 9639,
      "rman": 9640,
      "rance": 9641,
      "rte": 9642,
      "rting": 9643,
      "rling": 9644,
      "rrow": 9645,
      "rric": 9646,
      "rally": 9647,
      "rley": 9648,
      "rland": 9649,
      "rne": 9650,
      "rank": 9651,
      "rith": 9652,
      "rmin": 9653,
      "rrig": 9654,
      "rson": 9655,
      "ruck": 9656,
      "rana": 9657,
      "rlin": 9658,
      "rse": 9659,
      "rred": 9660,
      "rgan": 9661,
      "rels": 9662,
      "rner": 9663,
      "rvis": 9664,
      "rically": 9665,
      "rats": 9666,
      "rrad": 9667,
      "rma": 9668,
      "rger": 9669,
      "rford": 9670,
      "rke": 9671,
      "rmed": 9672,
      "rines": 9673,
      "rco": 9674,
      "rked": 9675,
      "rude": 9676,
      "rational": 9677,
      "rned": 9678,
      "rde": 9679,
      "rky": 9680,
      "rney": 9681,
      "rka": 9682,
      "rring": 9683,
      "rino": 9684,
      "rored": 9685,
      "rta": 9686,
      "rwood": 9687,
      "rata": 9688,
      "rries": 9689,
      "rden": 9690,
      "rral": 9691,
      "rdy": 9692,
      "rgo": 9693,
      "rgen": 9694,
      "rret": 9695,
      "rarian": 9696,
      "rca": 9697,
      "rgy": 9698,
      "rani": 9699,
      "rza": 9700,
      "ratory": 9701,
      "rga": 9702,
      "rval": 9703,
      "rases": 9704,
      "rba": 9705,
      "rils": 9706,
      "rrie": 9707,
      "rrick": 9708,
      "rwin": 9709,
      "rini": 9710,
      "rcle": 9711,
      "rzy": 9712,
      "rkin": 9713,
      "rmi": 9714,
      "rran": 9715,
      "rsa": 9716,
      "rva": 9717,
      "rissa": 9718,
      "runa": 9719,
      "ruding": 9720,
      "rrier": 9721,
      "rbin": 9722,
      "rcus": 9723,
      "rgos": 9724,
      "rchy": 9725,
      "rgeon": 9726,
      "rgh": 9727,
      "sb": 9728,
      "sd": 9729,
      "sf": 9730,
      "sg": 9731,
      "sl": 9732,
      "sm": 9733,
      "sz": 9734,
      "sin": 9735,
      "sed": 9736,
      "ses": 9737,
      "san": 9738,
      "sat": 9739,
      "sar": 9740,
      "sus": 9741,
      "sing": 9742,
      "sun": 9743,
      "sal": 9744,
      "sor": 9745,
      "sic": 9746,
      "sit": 9747,
      "sion": 9748,
      "sle": 9749,
      "sur": 9750,
      "sas": 9751,
      "sil": 9752,
      "sol": 9753,
      "som": 9754,
      "sch": 9755,
      "sation": 9756,
      "sam": 9757,
      "sul": 9758,
      "sos": 9759,
      "sir": 9760,
      "sant": 9761,
      "say": 9762,
[...]
